[PAD]
[UNK]
[CLS]
[SEP]
[MASK]
<S>
<T>
!
"
#
$
%
&
'
(
)
*
+
,
-
.
/
0
1
2
3
4
5
6
7
8
9
:
;
<
=
>
?
@
[
\
]
^
_
`
a
b
c
d
e
f
g
h
i
j
k
l
m
n
o
p
q
r
s
t
u
v
w
x
y
z
{
|
}
~
¡
¢
£
¥
§
©
ª
«
¬
®
°
±
²
³
´
µ
·
¹
º
»
¼
½
¾
¿
×
ß
æ
ð
ø
þ
đ
ħ
ı
ł
ŋ
œ
ƒ
ɑ
ɔ
ə
ɛ
ɡ
ɣ
ɨ
ɪ
ɾ
ʀ
ʃ
ʊ
ʒ
ʔ
ʰ
ʷ
ʹ
ʻ
ʼ
ʽ
ʾ
ʿ
ˈ
ː
α
β
γ
δ
ε
ζ
η
θ
ι
κ
λ
μ
ν
ξ
ο
π
ρ
ς
σ
τ
υ
φ
χ
ψ
ω
а
б
в
г
д
е
ж
з
и
к
л
м
н
о
п
р
с
т
у
ф
х
ц
ч
ш
щ
ъ
ы
ь
э
ю
я
є
і
ј
њ
ћ
ӏ
ә
ա
բ
գ
դ
ե
թ
ի
լ
կ
հ
ղ
մ
յ
ն
ո
պ
ս
վ
տ
ր
ց
ւ
ք
א
ב
ג
ד
ה
ו
ז
ח
ט
י
כ
ל
ם
מ
ן
נ
ס
ע
פ
צ
ק
ר
ש
ת
״
،
ء
ا
ب
ة
ت
ث
ج
ح
خ
د
ذ
ر
ز
س
ش
ص
ض
ط
ع
غ
ف
ق
ك
ل
م
ن
ه
و
ى
ي
پ
چ
ک
گ
ہ
ی
अ
आ
क
ख
ग
च
ज
ट
ड
ण
त
थ
द
ध
न
प
ब
भ
म
य
र
ल
व
श
ष
स
ह
ा
ि
ी
ो
।
ক
গ
জ
ট
ত
দ
ন
প
ব
ম
য
র
ল
শ
স
হ
া
ি
ী
ে
ৰ
ਰ
ਾ
க
ச
ட
த
ந
ன
ப
ம
ய
ர
ற
ல
ள
வ
ா
ி
ு
ெ
ே
ை
ం
న
ర
ల
ు
ಕ
ಗ
ತ
ದ
ನ
ಮ
ರ
ವ
ಾ
ು
ೕ
ം
ക
ട
ത
ന
പ
മ
യ
ര
ല
വ
ാ
ി
ක
ග
ත
ද
න
ප
ම
ය
ර
ල
ව
ස
හ
ා
ෙ
ก
ข
ค
ง
จ
ช
ด
ต
ท
ธ
น
บ
ป
พ
ม
ย
ร
ล
ว
ศ
ส
ห
อ
ะ
า
ำ
เ
แ
โ
ไ
་
က
င
တ
န
ပ
မ
ရ
သ
ာ
ေ
း
ა
ბ
დ
ე
ვ
თ
ი
ლ
მ
ნ
ო
რ
ს
ტ
უ
ᄀ
ᄁ
ᄂ
ᄃ
ᄄ
ᄅ
ᄆ
ᄇ
ᄉ
ᄊ
ᄋ
ᄌ
ᄎ
ᄏ
ᄐ
ᄑ
ᄒ
ᅡ
ᅢ
ᅣ
ᅥ
ᅦ
ᅧ
ᅨ
ᅩ
ᅪ
ᅬ
ᅭ
ᅮ
ᅯ
ᅱ
ᅲ
ᅳ
ᅴ
ᅵ
ᆨ
ᆫ
ᆯ
ᆷ
ᆸ
ᆺ
ᆼ
រ
ា
‐
‑
‒
–
—
―
‘
’
‚
“
”
„
†
‡
•
…
‰
′
″
€
₱
₹
ℓ
№
™
⅓
←
↑
→
↔
⇒
∈
−
∞
≈
≡
≤
≥
⋅
─
━
│
●
★
☆
♦
♭
♯
⟨
⟩
、
。
《
》
「
」
『
』
〜
あ
い
う
え
お
か
き
く
け
こ
さ
し
す
せ
そ
た
ち
っ
つ
て
と
な
に
の
は
ひ
ふ
へ
ま
み
む
め
も
や
ゆ
よ
ら
り
る
れ
ろ
を
ん
ア
ィ
イ
ウ
エ
オ
カ
キ
ク
ケ
コ
サ
シ
ス
セ
ソ
タ
チ
ッ
ツ
テ
ト
ナ
ニ
ネ
ノ
ハ
ヒ
フ
ヘ
ホ
マ
ミ
ム
メ
モ
ャ
ヤ
ュ
ョ
ラ
リ
ル
レ
ロ
ワ
ン
・
ー
一
七
三
上
下
不
世
东
中
主
久
之
乐
九
乡
事
二
五
井
京
人
仁
代
伊
会
位
何
作
你
佳
侍
保
信
傳
元
光
克
全
八
公
六
兵
典
内
出
分
利
前
劉
力
加
動
化
北
区
十
千
华
南
博
原
友
口
古
台
史
司
合
吉
同
名
后
君
周
命
和
唐
嘉
四
回
国
國
園
土
在
地
城
基
堂
報
士
夏
外
多
夜
大
天
太
夫
女
好
妃
子
字
学
學
守
安
宗
官
定
宮
家
宿
富
寶
寺
小
少
尚
山
島
川
州
工
市
帝
師
常
平
年
庄
府
度
康
建
式
张
張
影
後
徐
従
德
心
志
忠
思
情
想
愛
成
我
戦
戸
所
手
政
教
文
新
方
族
日
昌
明
星
春
昭
是
時
景
曲
書
最
會
月
有
朝
木
本
朱
李
村
来
東
松
林
校
桥
梁
楊
業
樂
次
歌
正
武
比
氏
民
水
氵
永
江
沙
河
治
泉
法
波
泰
洋
津
洪
流
海
深
清
港
湖
源
溪
漢
火
無
版
物
特
犬
玉
王
理
生
田
男
町
界
白
百
的
皇
目
相
省
真
知
石
研
社
神
福
秀
秋
科
究
空
立
章
竹
第
紀
經
羅
美
義
老
者
聖
育
胡
自
興
良
花
英
華
葉
藤
行
術
街
衛
西
要
見
親
解
言
記
語
論
语
谷
趙
路
車
軍
通
道
郎
郡
部
都
里
重
野
金
鉄
镇
長
长
門
間
阳
阿
陈
院
陳
陽
隆
雄
集
雲
電
青
韓
音
頭
風
飛
食
館
香
馬
駅
马
高
魔
黃
黄
龍
龙
龸
ꞌ
！
（
）
，
－
：
～
##t
##3
##2
##0
##1
##す
##ら
##マ
##ン
##a
##h
##s
##i
##y
##b
##e
##l
##o
##v
##r
##m
##n
##c
##u
##d
##p
##ᅡ
##ᄆ
##ᅵ
##ᆫ
##ᄀ
##ᅲ
##f
##k
##¼
##ə
##z
##g
##4
##7
##5
##8
##ᆷ
##ᆼ
##ᄒ
##ᅮ
##ᅢ
##ᄎ
##6
##w
##9
##x
##q
##স
##ব
##ж
##е
##в
##с
##к
##и
##ı
##т
##р
##о
##л
##г
##j
##ا
##د
##ي
##ر
##ᄅ
##ᄃ
##ᅧ
##æ
##ო
##მ
##н
##я
##з
##±
##ю
##ч
##α
##ł
##ы
##த
##ன
##а
##™
##ล
##ต
##ร
##า
##ย
##ก
##โ
##ด
##ᅬ
##ᆨ
##ᄋ
##ν
##η
##μ
##ο
##ε
##υ
##ι
##ᄇ
##ᅥ
##ᆯ
##ッ
##テ
##ィ
##ク
##ר
##ו
##پ
##ن
##ی
##オ
##ア
##カ
##ヒ
##タ
##ラ
##メ
##イ
##ह
##ß
##м
##り
##に
##し
##ん
##は
##や
##ʼ
##γ
##°
##ک
##ت
##و
##ա
##յ
##պ
##տ
##ո
##ւ
##մ
##π
##ป
##บ
##แ
##ม
##ி
##க
##ச
##ை
##þ
##ð
##τ
##ρ
##ω
##λ
##κ
##ς
##ہ
##ի
##ս
##у
##−
##ᅳ
##ᆸ
##פ
##ל
##½
##β
##գ
##բ
##ᆺ
##ᄉ
##ә
##ь
##ц
##ր
##ာ
##ရ
##န
##ပ
##တ
##ค
##ว
##ส
##դ
##ة
##ø
##σ
##ᄌ
##ل
##م
##ه
##ा
##ण
##ि
##ေ
##ᄊ
##ᅦ
##ᅴ
##ು
##য
##ে
##ক
##ট
##ি
##ʻ
##δ
##ะ
##ำ
##พ
##п
##і
##đ
##®
##ᅭ
##ய
##ு
##ʰ
##ъ
##х
##י
##ם
##ʀ
##ᅩ
##ᅣ
##ק
##ד
##え
##も
##チ
##ャ
##ネ
##ル
##²
##ɔ
##━
##φ
##न
##द
##र
##य
##χ
##ب
##ص
##ф
##נ
##ס
##া
##র
##ী
##জ
##ন
##ৰ
##б
##ス
##モ
##エ
##シ
##ᄐ
##×
##ш
##ட
##ெ
##ர
##ש
##ע
##ה
##д
##ӏ
##ح
##ض
##خ
##ʿ
##ದ
##ವ
##ನ
##ग
##ी
##ᄂ
##ਰ
##ツ
##ロ
##ノ
##щ
##⋅
##ז
##व
##گ
##→
##س
##غ
##ー
##त
##ᅯ
##э
##є
##จ
##อ
##น
##ћ
##เ
##リ
##コ
##キ
##ハ
##サ
##お
##と
##ј
##ն
##ե
##ง
##ط
##क
##ष
##म
##स
##ो
##ल
##भ
##आ
##ท
##ช
##ข
##ט
##מ
##ג
##ศ
##ය
##න
##た
##け
##ᅪ
##শ
##ज
##セ
##ト
##ɨ
##ˈ
##ホ
##ʊ
##വ
##മ
##ാ
##ത
##ി
##ന
##ق
##ไ
##œ
##ა
##ი
##ნ
##ლ
##א
##ת
##ف
##ز
##ش
##ى
##¢
##ذ
##ك
##ع
##θ
##ղ
##կ
##て
##き
##な
##い
##ケ
##श
##प
##ח
##ʔ
##ల
##ం
##ᅨ
##ᄑ
##њ
##ɛ
##ן
##´
##ல
##ா
##ː
##ɾ
##ত
##ʾ
##थ
##♭
##च
##ര
##ŋ
##ウ
##そ
##დ
##ს
##ワ
##★
##←
##ج
##ද
##ග
##ස
##ම
##ෙ
##ב
##あ
##ල
##ヤ
##ර
##ʃ
##ා
##☆
##レ
##ല
##പ
##ध
##რ
##ე
##း
##ɣ
##ʹ
##の
##ふ
##ே
##ப
##வ
##ਾ
##£
##フ
##ニ
##∈
##ర
##ు
##հ
##¹
##ვ
##ヘ
##～
##ธ
##ナ
##う
##³
##ɑ
##つ
##ക
##ട
##を
##ट
##ɪ
##ள
##ち
##か
##ミ
##ᄏ
##ᄁ
##↔
##ห
##さ
##ろ
##כ
##រ
##ា
##യ
##ം
##ಾ
##ಗ
##թ
##լ
##უ
##သ
##င
##က
##ब
##ħ
##ζ
##ল
##る
##へ
##≡
##↑
##ソ
##ற
##よ
##く
##º
##¥
##چ
##ʷ
##ᅱ
##ث
##ʒ
##হ
##ք
##ड
##せ
##ம
##│
##ந
##ख
##ョ
##ბ
##দ
##ರ
##ಕ
##ತ
##ψ
##¬
##¾
##প
##ム
##న
##צ
##ま
##ξ
##≤
##ප
##©
##こ
##ಮ
##♦
##●
##ম
##ɡ
##თ
##վ
##မ
##み
##ց
##っ
##ව
##ೕ
##∞
##ක
##গ
##ュ
##ත
##れ
##め
##ひ
##─
##ء
##µ
##€
##හ
##ᄄ
##≈
##ゆ
##ʽ
##む
##ª
##₱
##₹
##ℓ
##♯
##ꞌ
##ƒ
##⅓
##ტ
##अ
##≥
##⇒
##№
##he
##er
the
##in
##on
##ed
##an
##or
##at
##en
##es
##ar
in
##al
an
of
##is
##it
##ing
##as
##ou
and
##ic
to
##ion
##re
##om
##il
##el
##ent
th
##le
##st
##am
##ol
##ad
##ac
re
st
##ur
##et
was
##ot
on
##id
for
##ir
##ow
he
##ig
##iv
19
##ec
##ut
as
##ay
##ly
##ers
pr
##ation
al
##im
##ter
is
20
it
##ch
##ith
fr
be
##em
##us
with
##ist
wh
at
##os
##op
##and
##th
ch
##ce
##ul
##ag
that
##ct
##od
##oun
##ov
##un
by
con
his
##her
un
##av
##um
com
##ain
##oc
##est
from
##ap
de
se
her
##ess
##ld
ne
ar
tr
##ab
##all
##ian
##igh
##ver
##ak
pl
##ill
sh
le
##art
##ies
##if
##ip
ex
##ard
or
she
##ia
en
##ber
##ate
##ity
##our
su
br
sp
##ant
##ort
##ud
201
##se
##gh
##ack
##ight
##og
##ell
##ie
you
##ok
gr
##ust
##ere
##ich
had
cl
200
##ated
##ound
##ear
##ive
##ast
not
##ge
##ect
##ore
are
##ong
##ary
##ish
wor
were
me
##ial
##ould
##fer
##ment
am
##pp
##ine
##ue
##ame
but
##ave
##ough
whe
af
##ib
##ub
comp
this
18
##der
##ost
ab
##ces
##out
mar
sc
##ions
##so
my
##hed
new
##end
##ik
cr
##ical
##own
all
we
ad
man
play
int
##ome
which
##pt
##ous
##uc
##ks
also
##ign
do
ser
fir
##ass
one
##tern
##iz
##age
##ord
ac
they
him
##ure
car
##ide
##qu
##ire
col
out
res
ag
up
ro
##ice
sa
dr
have
##ace
first
kn
##tr
inc
part
tw
pe
##per
##ans
##ang
fe
us
199
comm
##ther
##ook
##ember
tim
##ied
who
##ond
can
te
cent
##feren
##pr
##one
go
their
##orn
##act
##ican
after
##man
has
so
##ach
year
bl
##aw
##ict
##ory
ind
##ind
##ational
##ater
its
rec
off
##ath
##ations
##amp
coun
per
##land
rel
##ult
##ally
##ree
ev
app
##ick
des
##ug
##ens
over
amer
dis
im
fil
there
referen
been
no
##ople
fl
##ry
when
##ition
jo
##ite
sch
other
bec
##ff
two
par
references
##ile
str
##ade
into
##ose
act
pro
##ited
would
##uct
##ward
##iss
##oll
198
co
##ates
##way
##ail
##itt
##ance
##ence
##ake
##ild
people
ed
##over
time
##pl
##urn
back
film
##ents
##ely
pol
##ool
##ors
##int
ph
##ey
##ings
##ivers
##lect
##les
##ubl
sec
ass
##oot
##ty
dec
qu
mus
form
pre
american
##ike
##ock
##00
##oss
wr
##ball
##old
##lud
fin
##we
##ft
thr
about
reg
may
##able
##ra
##ood
##ep
##wn
197
##ase
##ogr
##orm
##io
again
gen
##ah
##az
then
##uring
what
includ
art
eng
em
bu
said
lin
sm
##eld
##ased
did
some
them
more
war
##ro
gu
bet
##hip
serv
school
cont
bo
##ason
work
under
will
how
##other
##ics
ear
##hn
dist
min
gre
univers
##als
202
##air
hist
196
sy
pres
##gan
##port
could
##ished
##ont
##outh
if
foot
##ury
like
nor
##ious
##au
only
world
##ision
publ
##ale
see
acc
po
cons
##ife
during
just
loc
##let
##ett
##ily
##aus
##vel
##ix
##anc
##br
med
where
through
##ames
##ank
national
##fore
##ton
char
att
##pen
##ral
##ier
##olog
university
team
prod
stud
ma
##oth
found
sl
##cc
17
##ons
united
rem
##led
##ince
194
any
##ists
##hes
mov
elect
##oup
##tain
##ery
air
##ouse
inter
football
##uary
before
el
most
est
than
195
##att
hand
sub
arm
fam
made
head
day
state
sing
##ev
second
high
look
end
down
ever
season
##elf
years
right
wom
inst
spec
liv
##son
born
city
##ternal
bar
south
##ollow
##ri
##ating
well
record
##form
##ann
sur
##hing
##irect
alb
three
##ween
pop
##ph
trans
follow
between
players
##gr
bir
now
def
win
distr
##up
##ather
direct
later
##ork
call
sw
mon
##ped
prov
gl
bel
##iet
states
while
external
links
gener
met
##ities
nov
cap
10
##aph
##ina
##ative
##enn
contr
##ement
la
ret
century
long
ter
##ys
##ked
know
##ular
north
group
16
193
care
rev
rele
inv
house
##emb
list
##ual
##ink
open
cre
##are
music
##overn
soc
govern
ann
life
id
##sp
##ower
##lish
15
##enc
##til
##ought
song
jun
against
##cr
want
ge
compan
being
four
album
num
pers
dep
lar
##iam
men
##ague
##ise
##ott
##ific
john
ger
award
##ob
mat
##ove
##ional
such
supp
che
around
##oy
##ull
##und
offic
used
##ths
12
aust
county
##ning
way
##ley
##ield
##ica
##ope
##ject
192
series
both
known
##ause
history
champ
own
your
##ts
##ident
bre
lead
show
##0s
death
start
ob
ey
sk
add
##ures
district
##erv
jan
cour
until
intern
##ins
##ern
##ew
cur
many
league
##uss
##iver
oper
##els
##ee
polit
har
##its
build
prof
mod
these
191
class
##ful
even
##ograph
##aking
##iew
commun
run
family
get
town
##ese
women
mil
old
cor
brit
##xt
##str
main
wal
mu
club
##omet
became
##ior
since
##ll
book
##uction
##velop
every
left
##red
leg
tel
exp
estab
ju
dem
sim
11
##ister
aut
cal
sign
red
hel
miss
##ark
##ourn
west
won
div
turn
chr
develop
law
##ism
##ever
public
##eng
##ner
rece
##amed
including
##ized
early
king
##ural
rep
star
orig
##urch
##ash
##ently
##ived
##ments
name
colle
german
bus
living
international
place
child
still
##ling
sever
##ians
land
##ai
14
##uck
##ange
##ined
##ets
because
point
13
appear
aug
champions
##augh
films
##ted
##by
##iev
##ene
stre
##osed
game
progr
##mer
av
oct
origin
say
person
##hen
march
design
home
dif
career
disc
former
took
##ced
val
sept
##ek
var
same
del
austral
##stem
##ually
##ution
august
near
number
port
good
york
best
following
organ
##oci
pass
need
##ute
games
ke
british
company
prot
bas
##ric
##ible
september
##ient
pat
conc
area
inf
##ert
ins
vill
##yp
##ae
associ
##ober
called
last
##iter
mid
system
however
##get
ir
##ology
##inc
eur
october
each
return
government
mag
##ised
align
somet
21
##ren
ang
june
maj
arch
apr
contin
ra
ve
##ium
##eter
general
##ung
##ody
prop
repr
played
january
tre
eyes
released
black
july
##ane
ep
center
several
another
based
##ble
##ants
##embers
college
april
##bert
##min
small
educ
far
members
canad
make
births
feat
order
mill
##ady
resp
english
much
profess
##ital
##ained
camp
along
held
arr
##ief
should
hum
party
set
##ages
popul
##aving
november
sum
ste
adv
##ime
stand
thir
championship
prom
##ench
##ected
##ying
conf
descr
##ives
##ured
line
rest
east
##yl
result
top
##ows
december
here
##cept
think
began
##ired
never
away
histor
##hern
sen
##ched
##icip
countr
##uced
##yle
##ony
##ues
##aced
side
##ider
##bs
major
band
##erg
use
##uk
##ret
##aces
##amm
tit
real
going
sport
##ided
##self
manag
##yn
##sh
church
##ator
2010
member
take
water
##gin
great
complet
rad
190
##ued
telev
support
000
##por
##ection
compet
##mp
##ote
ec
##ially
park
##ices
##ax
hal
president
rail
station
litt
##ats
##ilt
final
ii
eff
christ
phil
road
tal
2011
##ize
very
television
mo
vo
little
##apan
##ography
vol
repres
lang
kill
##iness
europe
rom
let
##ility
febr
local
##ended
mark
february
##ines
geor
power
too
short
sil
##aint
es
thought
cle
2008
night
spe
##ried
those
##ience
occ
##ison
japan
##ically
pa
2012
##ama
mal
six
##eal
##que
##oph
##olv
##ger
track
##che
ext
##app
##lex
2009
sal
post
pos
river
189
##lished
island
batt
youn
face
beh
tec
##oad
named
ant
25
came
prev
##ata
light
moun
son
##iting
2007
father
white
french
2006
five
##aster
ref
##ode
##ana
2013
represent
##ored
##ne
##ately
fur
2014
30
##ness
##ival
service
report
vis
fri
##bo
##eder
2016
##onom
present
##te
russ
##akes
went
room
##ips
conv
afr
gir
2015
##ains
##ford
press
died
event
fre
nat
##be
##ms
##co
established
giv
william
##ention
deb
cast
##ds
cup
langu
vict
##ards
##adem
age
describ
##ps
due
##gest
2018
##ides
##aining
friend
##ared
##atic
milit
ital
single
##day
few
##ster
2017
ll
building
located
business
our
bi
##thing
##ten
sol
dav
##atch
##elt
next
##ged
auth
round
bur
##itions
division
##for
hon
super
##ara
##iety
style
san
cond
roy
##press
##alth
typ
army
depart
vers
children
2019
techn
sn
field
##ars
population
lab
tell
third
squ
something
pal
find
mor
stat
ele
sound
188
lond
within
##ino
hol
built
2020
grand
er
player
counc
london
times
tem
come
rock
got
species
##ified
##aff
24
hard
served
differ
succ
curr
resear
looked
cult
love
tour
academ
enter
expl
eas
##ones
net
asked
body
put
engine
##af
##idge
gold
2005
village
published
association
ap
large
vi
##ission
stop
##ille
##ress
##bur
girl
##col
##osp
repl
##cl
success
mer
ent
##nt
22
##ency
moved
##med
oly
instit
official
fact
sat
without
started
received
feel
##omin
##ipp
indian
court
##ches
olymp
collect
li
##ham
mun
##ani
project
##ech
##res
##ron
fac
wind
vide
front
though
##umb
non
nort
##ring
proc
conn
det
imp
command
hold
military
country
council
##aim
education
hall
##ways
don
ill
##estern
accord
2004
const
brother
2021
different
read
23
central
street
help
does
##ams
terr
journ
equ
mich
##umn
mom
male
##oke
special
cross
opp
door
##ached
poss
mother
dou
once
consider
uk
addition
exper
works
##den
vir
186
crit
pur
fem
led
##yr
wa
mur
iss
##oint
big
2000
aff
##side
bill
##ler
ten
requ
author
toward
##istr
why
further
que
union
187
sett
##ality
announ
among
sev
##rew
young
lim
alth
cover
##hel
social
##me
##ma
week
##king
common
although
##ization
cam
sout
tot
di
director
level
constr
royal
language
rich
fun
sit
late
##acter
half
##na
development
lou
republ
story
##itor
base
research
chang
perform
ca
##ively
having
mot
ren
##lin
mem
sel
toget
nav
together
according
2022
office
fire
dev
bal
saw
##ting
attack
mc
##esh
##ien
free
described
##ground
epis
lat
sold
2003
##ops
##ument
summer
deaths
trad
election
##iod
fall
mass
human
full
acr
tur
cer
god
prim
broad
##par
jud
community
dam
video
##irc
inform
included
wall
je
voice
lo
original
##ico
wanted
england
behind
26
jack
##itten
himself
include
political
2002
calif
turned
opened
californ
lost
muse
##ky
surv
period
27
western
activ
28
##ned
sent
civ
2001
days
roman
green
##ably
##ament
##ges
knew
live
california
given
seem
australia
hot
james
oh
##ka
across
den
ur
cat
felt
intr
million
bor
##line
import
mean
hands
##fe
##wer
arg
production
department
##aken
mad
politic
fight
medal
100
wood
mart
songs
fell
init
allow
incre
econom
radio
cas
##uel
dark
##ances
##rop
previous
coll
thom
##amb
##arr
force
##ius
often
must
museum
grad
##ael
circ
##ecut
##oved
step
keep
test
heart
##ney
##tt
region
tom
making
appro
##ald
society
title
cy
woman
##ots
ber
##eth
records
character
hor
##work
believ
ground
professional
awards
admin
written
australian
sun
##ipt
places
france
km
meet
paul
control
##ape
gave
##oor
##ours
##ither
##ibut
david
george
##ature
##cer
told
produced
hy
india
20th
site
rout
alm
hig
establish
pet
low
##omb
indust
announced
##ays
board
refer
debut
##ze
##acy
civil
feder
29
worked
past
space
sour
effect
bed
hill
##ened
los
railway
185
##ising
involv
der
role
total
review
##ha
health
franc
##dom
married
chair
##less
##ocr
european
pan
priv
heav
mr
mult
secret
invest
using
##dle
flor
##ru
lib
gun
##li
trav
committ
##anish
really
become
##field
struct
1999
host
##used
might
sam
##ya
##lu
##epend
##empt
interest
canadian
bg
kh
appoint
##go
process
services
returned
canada
##ogn
independ
##ners
less
pap
journal
ran
##ush
##aughter
enough
##ilar
america
##color
##iment
ok
municip
police
sure
match
robert
bad
albums
mel
##ve
plan
northern
continued
various
##itar
commission
created
bgcolor
dest
anim
scre
##ference
##ago
books
##cast
##ending
perfor
pract
##ploy
##aut
phot
administr
draw
phys
background
position
battle
ver
seen
chief
others
comb
case
prem
mountain
joined
##ship
performan
mind
claim
alex
##ead
31
hen
introd
hur
mont
tv
rac
1998
minister
cop
close
footballers
tor
version
chap
view
sus
events
fest
mary
almost
defe
exc
alumn
chin
##isc
kar
##ville
##of
##ket
##ena
du
##aps
science
##gar
voc
modern
coach
program
sem
clos
wife
##ple
news
pain
bank
race
##iding
##ators
better
princ
blood
##oney
working
teams
always
ide
##imin
similar
alumni
mac
##ox
##ories
key
##iction
##ania
mex
ru
southern
ple
##iff
enc
rob
1996
et
##ca
sports
##ivid
hair
text
liter
tex
wrote
##bor
webs
pul
things
##ological
doc
hous
angel
grow
blue
fif
##nd
popular
##ption
1997
jose
express
ath
sex
##itect
kingdom
quest
##xim
assist
##ction
##reek
relations
ham
students
tou
##arch
information
nothing
buildings
hit
strong
dut
architect
ball
##ump
##cent
germany
inside
fig
##stand
hap
##aves
50
release
produc
jew
partic
eight
japanese
offer
begin
writ
184
brown
##aught
italian
##ids
democr
gar
soft
fa
wil
##ida
least
attempt
nec
give
##aft
impr
fund
##ering
##ense
##ready
##hib
##ki
##burg
ident
individ
corn
##raft
playing
##ele
##olic
soon
lake
scott
already
##utes
##ming
elected
##iers
hosp
##hers
russian
bay
particip
##ount
african
cost
1995
thomas
boy
personal
##itz
cut
province
parl
constit
ship
artist
media
##olution
tourn
washing
examp
founded
mix
ps
##bed
chart
basket
promot
compos
##ij
aver
anything
cho
reached
caus
stage
taken
china
middle
hu
website
schools
important
appeared
1994
1992
coast
upon
scr
##erc
##wood
notes
cand
product
##imes
quick
desp
##sequ
##iled
recogn
points
##igr
thing
deep
##to
##head
rh
##oming
##aged
cath
color
hun
##iec
magaz
theat
historic
##itch
stay
able
##ili
wat
##uation
foc
athlet
dead
aud
instead
esp
birth
##gy
washington
##uce
happen
arts
ol
michael
considered
gall
seven
mic
transport
##ari
sea
yes
course
republic
daughter
recorded
artic
fail
tax
parliam
ben
directed
appl
##ishing
results
viol
##idence
##lement
paint
followed
##ole
moment
lear
fore
parliament
charles
pen
academy
40
looking
##here
1993
agre
##ength
done
##oon
2023
##ves
rul
either
##erson
guitar
libr
van
shar
execut
##odes
institute
##airs
signed
qual
table
laun
basketball
arms
reb
##isl
obs
female
prob
##oul
pun
##off
data
##reg
##ucted
tradition
killed
eastern
bul
areas
earl
cell
reason
##urs
appointed
aw
forces
mater
completed
##ification
deg
break
1991
##aign
staff
##berg
particular
##nes
groups
taking
1990
pay
influ
clear
companies
##nel
change
novel
##overs
hers
sir
183
##hem
ha
pot
frank
adm
relig
box
env
ul
cens
outside
louis
proble
christian
##ala
instr
sand
contract
hom
committee
kind
exist
lower
words
rank
tar
##iving
fort
centre
victor
peter
lu
##ift
##itive
virgin
closed
fut
treat
episode
##ex
construction
entire
market
campaign
##ements
deal
##cle
##olf
type
months
food
bab
artists
hung
training
##ban
paris
bow
##ona
dig
esc
##ga
carol
##anced
private
fle
##gress
formed
finished
kr
festival
ans
term
##fl
##anch
spanish
##etting
lik
fing
##ke
colon
##tered
hospital
assemb
vot
forest
current
despite
finally
today
##craft
hear
##aker
entr
ach
route
##ota
employ
##ano
##wr
pick
meth
tournament
bud
swe
##ny
chinese
##ique
hop
##ander
os
##ker
championships
card
squad
above
forward
rights
reported
sle
performance
sov
mouth
shot
roll
1989
dre
plant
master
interv
originally
gradu
##band
zeal
doct
developed
access
someone
register
richard
move
regular
saint
##mon
##lo
1988
slow
##ella
africa
##ensive
burn
21st
leave
anc
olympics
eth
##iple
##ude
separ
yet
##enth
##ume
##mar
penn
##ees
cit
watch
##ta
henry
##ston
study
sug
lord
hell
network
kore
##ipped
floor
##ula
zealand
studies
avail
action
texas
##iron
op
ven
sud
sym
##ba
##ergy
heard
##uit
fer
discover
professor
goal
gard
##edy
##uf
census
emp
##idae
model
sar
trying
ye
medical
clim
##ceed
die
##asc
drop
everything
##riate
reserv
brought
anal
ire
proper
lay
fav
##anger
smith
comput
maybe
chann
##icket
acqu
##wor
eventually
##uth
mir
conference
##ita
stations
earth
federal
aircraft
luc
average
catholic
ce
captain
##hold
sant
##sel
liber
money
1987
polic
capt
attr
##ials
writers
hus
ireland
natural
##ises
running
singles
tried
decided
bit
##ination
word
jer
quar
swed
##fully
lot
lie
##osh
##ini
##ication
transl
added
##bc
##aries
section
broadcast
##omm
ox
else
culture
matt
baseball
##medi
certain
throughout
loss
##dr
feet
remained
scient
suggest
1986
features
##gn
##ateg
environ
breath
legisl
example
rather
officer
##ym
coming
##ii
wid
movement
actress
##atives
rug
plann
1984
##icated
conserv
iv
##ych
##ura
chic
francis
##hood
##pre
minutes
##ded
##apt
fourth
magazine
##atory
range
musical
fly
seat
governor
nod
gh
senior
bat
##rain
imm
inn
singer
wild
mos
leading
inj
##men
guard
##ado
library
##apped
##za
bridge
1985
turk
studio
capital
performed
available
needed
##ck
bish
politician
placed
plat
braz
##de
pict
decl
independent
fair
morn
##elled
accept
doing
##itted
kiss
##rael
friends
##aj
ice
competition
##ested
reach
theatre
sor
silver
insp
##omp
##itting
norm
technology
35
##lands
##urity
row
cab
1980
##fect
##ada
method
##roy
abs
log
neigh
##action
thre
respons
leaders
probably
jul
##ockey
self
##era
sister
lif
designed
##eks
##ases
neg
##ilities
dom
says
document
connect
brand
shows
peak
congress
##istan
expat
pac
management
trust
subsequ
israel
##ability
prison
##ugg
##istry
soviet
programm
exhib
1st
hours
ord
candid
month
listed
future
foreign
georg
poet
182
##ola
deter
nomin
towards
leader
stone
1983
stood
##idents
usually
assembly
speed
ban
##aur
talk
##enty
##ights
##ential
involved
dar
possible
##aches
trib
related
touch
reading
anti
writer
##asing
brazil
except
collection
piec
includes
##cher
##enced
idea
largest
happ
prior
wide
mess
##uff
##ette
pulled
chall
##ios
investig
##ificant
##ores
1982
missing
sometimes
##well
##ray
mission
establishments
181
environment
travel
respect
ov
mexico
edition
ros
tenn
morning
primary
currently
remember
narr
winning
##iation
achiev
##ades
##back
virginia
##play
##agon
olympic
organization
energy
understand
navy
transfer
##bb
mach
chicago
grant
awarded
atl
##yan
heavy
significant
beginning
##uke
valley
subject
writing
queen
1979
susp
beaut
scot
famil
32
bring
gal
tun
critic
##igan
19th
herself
fc
changed
size
drama
featured
seemed
##oat
##ining
spir
stev
##han
##eople
wonder
##ushed
sav
screen
rap
bene
##isted
actor
edward
notable
rugby
italy
pil
airport
surf
##la
minor
beg
introduced
vocals
##ications
##rd
security
1981
drum
1972
##ends
coup
##row
replaced
honor
answer
count
object
fill
schol
espec
regional
lived
irish
question
degree
effort
hockey
##oma
amb
occup
stated
##tained
date
##ein
##igned
##ris
trade
quickly
relationship
cred
##ask
shr
##ales
scored
eye
45
diff
commerc
meas
1976
##elling
stra
especially
pred
corpor
martin
families
via
whole
##antic
historical
glob
gas
systems
1978
producer
expatriate
domin
observ
bes
##olk
##my
##oken
fine
empire
jim
manager
immedi
quarter
##oo
##kn
industry
##9e
countries
1974
mount
##iana
##uz
##room
longer
youth
und
extr
elev
psych
native
previously
beat
murder
##ites
florida
democratic
spent
##istics
smile
getting
below
##ffer
units
shoot
##iences
joseph
1975
spring
stad
alone
organiz
passed
train
1970
##abor
unit
decision
1977
leaving
rose
##board
standard
wing
premier
1968
od
##tim
occur
##iano
municipality
bass
ash
surr
thus
kept
financ
raised
pack
##use
higher
seasons
##pper
newsp
##ophy
operations
charact
whose
characters
bell
newspap
selected
les
il
tro
secretary
oppos
##ibution
parts
glass
##iption
##iger
##oe
##oring
##ocked
contribut
##tar
sort
columb
ended
regard
gone
1973
parents
channel
opening
myself
arab
girls
provided
##fort
##essed
owned
##icult
prince
skin
angeles
means
apart
bott
##ients
nick
allowed
wales
##hic
destroy
##anda
##west
doub
sources
believe
husband
names
gaz
russia
focus
household
##porary
##ests
##rian
haw
##gian
##hest
length
1971
carl
personnel
1945
##har
cele
cricket
##abit
patr
doctor
economic
##och
executive
36
winter
##ufact
surround
nine
##ails
manufact
fear
note
foundation
dance
dun
earlier
180
try
vehic
##owers
33
true
carolina
1969
additional
##ria
60
##eg
da
##ension
farm
fast
cold
complete
active
##lor
sens
##sc
##ging
individual
##irt
approxim
wear
##ening
celebr
editor
##cy
industr
spl
meeting
elections
##ession
saying
complex
##arian
##lam
ton
ukrain
##ylv
operation
##hire
az
limited
greek
mine
cultural
##oles
mut
politicians
cust
cd
itself
##ias
ut
student
actually
##riage
##inct
purch
ray
##ector
paper
00
interview
##azz
##ipl
dog
1967
value
walked
chem
entered
pull
pret
na
##istic
plays
##ja
page
moving
islands
##arily
##inn
teac
structure
##iling
##ua
##ims
500
surpr
path
##usion
lee
##ects
##ko
regiment
emb
attended
##ylvania
##iced
##dy
##ols
ships
1964
lips
goals
##ustr
##ping
##ati
anth
##oz
defeated
##oper
##ware
location
ess
weeks
ens
legal
purp
rub
emerg
memor
sched
##hi
dont
spain
dutch
concern
##ule
rain
saf
charl
engineering
genus
makes
bon
okay
electric
disp
##orpor
##aming
sleep
2nd
peace
princip
starting
##selves
lady
##ding
lines
provide
runs
philipp
##uments
rural
footballer
prize
castle
##isk
ram
179
matter
##ental
brig
mention
guy
dyn
##iel
commercial
labor
hope
spr
job
bron
lack
sudden
stopped
bag
township
pak
nearly
ful
happened
##asion
frequ
forced
chapter
chest
ah
onto
altern
standing
traditional
older
1965
twenty
houses
##ibility
mah
penns
bishop
##ror
hund
initially
jewish
##inet
##road
matches
##rect
scottish
stadium
numer
ak
overall
##hol
academic
wrest
justice
border
1966
##ires
##where
appr
##iously
##ero
stars
34
bomb
##iant
practice
revolution
represented
suc
##onic
assistant
junior
whom
jac
##iy
##ingu
pennsylvania
administration
reveal
##cel
difficult
bound
##speople
takes
attention
##wan
1960
65
dani
bib
##ersey
hundred
asian
##itors
##ulation
victory
##onse
phone
mcc
source
bob
square
covered
##ansas
##heast
##het
property
annual
champion
##chen
##unt
stock
prime
##com
comedy
##onstr
successful
computer
##iga
cry
ly
contem
municipal
nature
syn
##ils
online
##ato
movie
##ques
bang
issue
rang
discuss
religious
##anded
ba
biography
##shire
launched
drive
iran
issues
##ously
carr
lic
opt
gallery
##bridge
brief
sportspeople
##icted
hotel
##ador
walk
tracks
##ef
web
speak
highest
philos
##yer
cant
##ocks
##ify
policy
suffer
straight
##ered
ancient
##ugu
approximately
fiction
multiple
studied
threat
##leg
meant
print
associated
hour
compl
double
cities
nodded
highway
ring
##egr
cases
unl
termin
##itation
##aned
##oid
##teen
upper
##ences
##uals
response
##ez
##more
##ems
everyone
din
##read
pacific
mayor
ask
noted
block
ho
financial
albert
##oud
##gl
reform
mech
1944
figure
##enue
officers
metal
didnt
survey
entertain
recording
score
pit
##itory
jersey
jon
1962
##ective
##isters
becoming
1963
draft
whis
##inal
caused
flight
crow
anyone
##ira
commander
poor
pu
scotland
appearance
argent
holding
ott
##isions
belong
temple
deput
iii
kent
feeling
simp
corps
yell
polish
38
feature
##ightly
mostly
##icks
##mark
weap
kid
##awa
grab
stories
motor
##20
agric
bost
concept
rod
##aped
helped
citiz
michigan
##izing
boys
##enge
neck
fingers
##iful
carry
adj
lives
immediately
specific
shut
bol
managed
sac
parish
required
stan
generally
kit
sense
couple
store
37
##ila
digital
crew
disapp
bey
oce
oil
subst
golden
distance
activities
##bers
beach
themselves
mob
agricult
giving
##d6
##iles
ohio
theory
44
nations
material
wrong
evidence
imag
clubs
categ
drug
##rupt
jones
##ux
ta
poland
storm
article
##mann
ded
changes
1961
collabor
##aly
1942
tree
##gen
platform
direction
exact
max
trail
##any
search
##etts
medalists
brothers
surface
mechan
fal
offered
ready
magn
fellow
exch
actors
mand
##emic
anton
winner
winners
boston
adop
##bon
abb
villages
iron
harv
teach
##mit
##wa
retired
problem
racing
brook
fifth
arrang
experience
chairman
##ci
carried
era
##bury
ign
##gu
literature
rid
bod
##ora
sab
1956
1948
##mond
##iance
##une
comment
convers
diss
smiled
georgia
##abeth
rat
##utions
branch
##inois
cov
marriage
##achus
sky
vice
##ela
infant
nation
arrived
pier
mas
##aka
mis
tall
1958
80
whether
minute
horse
cub
caught
##rey
corner
numerous
##50
##uten
rog
fish
illinois
custom
passeng
##iest
cin
eliz
##nam
1959
republican
##ss
orche
architecture
1943
contains
##house
spirit
status
tam
##ali
1939
serving
cart
subsequently
autom
##ault
cook
terms
asia
meaning
41
facult
britain
majority
##ih
##light
bern
medic
temper
dad
##ova
##lad
1940
believed
##burgh
##aya
uses
dim
edge
code
structures
##don
jean
operated
1941
columbia
dan
cz
joe
spread
cann
sad
yeah
ministry
towns
increased
##ucky
##rid
baby
williams
particularly
##ledge
1957
ped
dise
massachus
shook
quiet
finals
cause
massachusetts
1950
swim
1946
##kin
70
soldiers
creek
##ros
tower
prec
sequ
alexander
##pped
comes
organizations
perfect
mike
42
andrew
##onia
tan
programs
confir
wait
counter
##eds
kick
defense
##bi
sher
scul
shop
thinking
window
victoria
failed
##ibly
judge
plans
crime
quite
islam
firm
musicians
estim
create
reception
remain
workers
##aud
jr
1952
ken
shoulder
##down
attract
remains
beautiful
dropped
completely
##gypt
communities
39
weight
indic
claimed
##ograp
global
letter
determ
las
##illa
##erse
impact
yellow
hong
likely
johnson
urban
##con
uns
cav
##wh
cou
mixed
freed
francisco
1955
1947
thous
egypt
concert
territory
##ogen
##etic
thousand
conver
favor
kenn
##va
von
bac
##iny
contact
politics
vac
miles
cham
slowly
latin
##ls
##illy
wed
##adel
##book
##kins
90
progress
oxford
178
dail
ago
##oes
##inary
fighting
volume
##stra
consist
income
grew
resour
cooper
kong
jackson
critical
famous
dur
map
shad
##itan
adult
supre
supported
##arters
sorry
##ysis
faculty
senate
##ifying
electron
jeff
maria
lieuten
mort
sculpt
earned
percent
syd
##iang
bh
presented
hind
ty
representatives
##umed
physical
barb
nearby
lem
shown
##mas
larger
1954
soul
49
episodes
enj
daniel
whisper
swedish
##wards
beyond
tear
fix
marine
##da
element
install
sund
bear
##isation
soccer
competed
vamp
1953
imper
##encies
eld
recent
talking
plot
##owed
##ighter
48
1949
##oh
industrial
3rd
joint
latter
##astic
neighbor
rate
extended
appearances
function
administrative
chance
piano
##omes
heat
opera
reflect
scene
remaining
necess
##itude
##antly
rand
suff
sweet
##isher
drink
43
contemporary
share
inh
##unk
garden
happy
distribution
battal
marsh
##ented
ker
##ancy
protect
64
conduct
greater
approach
##uing
directly
newspaper
##uries
rules
nic
##arm
traff
1980s
address
variety
##hew
47
agreed
177
elizabeth
kal
promin
mit
descent
kil
hang
preserv
##uch
##span
problems
tay
1951
mountains
appears
gab
headqu
solo
berlin
troops
vote
ts
##win
laugh
mist
mathem
51
strugg
wound
warm
##uan
expected
description
coal
##aded
recip
dream
entertainment
lieutenant
waiting
poll
constitu
som
partners
##ety
wo
steel
label
kir
rule
ultim
account
##lict
ocean
##orter
windows
subs
##oral
##ucle
sydney
bibli
pair
promoted
legs
##ns
obl
articles
naval
ow
acquired
kim
gray
enem
bath
flag
daily
hes
##haps
laws
authority
##anth
pad
acting
##orporated
appar
squadron
discovered
ib
##ters
separate
memorial
perhaps
leon
advent
##ologist
surn
danger
##aked
1936
trees
##oned
hurt
forms
##una
marc
##oster
##uts
korean
##greg
truth
campus
semi
composed
ordered
extre
##owing
serb
affairs
jazz
estate
watched
viet
##ellig
queens
sciences
featuring
suddenly
simply
defin
proposed
cem
##ulated
benef
emper
arth
protest
bbc
alongside
##ji
lov
pp
cars
join
formerly
chris
crown
founder
##bour
display
referred
pra
##stein
planned
deputy
1970s
reserve
lev
1990s
ther
##mont
hay
##itage
serve
enjoy
##10
image
populated
purs
##acing
46
contest
unkn
##ington
1918
trip
merg
##uv
##hr
novels
1938
individuals
parties
plants
behav
supreme
duke
increase
products
##atively
responsible
profile
shel
piece
bright
cool
continue
##ables
recover
asp
engineer
exam
baron
kel
rivers
##gs
##onto
secondary
ga
##entr
##zy
##can
##ills
infantry
corporation
rot
succeed
org
##ourne
safe
wars
illustr
korea
55
czech
conflict
jes
agreement
lit
leaves
numbers
influence
snow
bronze
removed
please
trial
drag
##lers
eg
heritage
ward
pretty
75
choice
require
##akh
thank
52
astr
intellig
##yt
##awn
scholars
repe
dress
##ube
normal
therefore
##ika
magic
nucle
electr
1937
prep
maxim
charge
dipl
##ima
kat
##ipping
unknown
lad
##bing
##chester
cinem
opport
safety
mainly
software
candidate
statistics
restr
lock
broke
##enna
opportun
gather
trou
##olled
1920
graduated
resist
initi
positive
memory
sr
wit
looks
conditions
documentary
abd
rome
exchange
eag
retr
expression
protection
##lav
tight
machine
fresh
##hens
catal
emot
settlement
kur
##izes
nether
wheel
charts
nob
##agn
dor
ny
##elle
fat
moon
showed
##tery
cert
diam
danc
lew
goes
target
sig
races
demand
ron
crimin
transferred
situation
scen
restaur
emperor
##iro
equip
clean
presence
residents
grade
spot
growing
filled
issued
capac
teacher
classical
##iot
formation
integr
closer
##eness
knowledge
htt
##ici
##ropol
elements
agency
walls
##uated
##otten
toronto
citizens
perman
santa
fleet
##iber
slightly
avenue
flat
rab
##bre
ell
sitting
languages
##adelph
minnes
ira
##bec
revealed
projects
technical
1935
wolf
broken
##jo
fant
om
railroad
##iat
treatment
##oman
tong
mrs
thin
suit
##oms
scientific
ahead
minnesota
adam
worth
climate
ontar
hav
purpose
##sen
aer
robin
none
quality
fab
districts
effects
1960s
##eman
philadelph
1930
##war
medicine
increasing
hug
54
coff
partner
lies
respond
##aging
simon
flying
greg
ontario
1919
ww
cycl
fox
jam
housing
geography
lt
steve
alle
shortly
consists
holy
##ulf
philadelphia
owners
##worth
##fc
##rich
mexican
chamber
##stone
analysis
##ione
jur
attend
##onym
twice
##vert
intended
officially
usa
musl
sin
1914
songwr
tennis
##attle
split
symb
initial
##othes
##ensity
labour
vic
brad
exactly
ka
leadership
cambridge
##oration
renamed
cancer
bc
americ
##yth
pakistan
younger
equipment
provides
households
oak
controvers
levels
forg
##resp
300
constructed
ethn
headed
indones
##wide
yard
##athan
owner
1933
aband
liberal
deliver
netherlands
##bourne
habit
vent
representative
rough
content
resident
educational
1929
smaller
pin
pressure
sexual
sites
catch
battalion
56
taylor
risk
demonstr
eat
alf
publishing
wel
cow
finish
1928
lett
pros
challenge
titled
destroyed
moth
ability
thick
##iser
aim
reviews
scar
publications
orchestra
##etery
##iform
boat
##mission
cerem
cemetery
funct
folk
1934
clar
lind
bottom
bibliography
wilson
seg
slov
improv
han
arthur
designated
recognized
##onsin
##iring
wisc
mentioned
##anna
raj
participated
1917
elimin
impress
picture
stared
##iday
bull
##pa
sons
growth
losing
sharp
##itzer
males
barr
dial
##zz
regul
supposed
ax
gon
##ava
paid
naz
serious
wisconsin
##town
freedom
extra
##ashed
easy
cass
##ender
53
simple
ale
concentr
57
1932
challeng
advanced
sax
ones
accepted
andre
types
##inity
facilities
instrument
seconds
mm
##uled
##ogue
watching
visit
buried
##ushing
painting
ali
potential
whate
##aki
calc
primarily
clark
##ensis
agent
spoke
##bl
##ailed
drew
##sey
whatever
motion
sides
##rel
brain
activity
planning
metropol
trop
realized
accident
gaze
dub
compared
gor
vs
environmental
pushed
composer
##ouri
save
##asty
sales
gang
legislative
imperial
norwe
##sa
zone
um
rein
animal
58
alt
dedicated
driver
aid
chur
headquarters
stepped
palace
gil
##hl
spect
boot
##wick
damage
doll
##oses
1924
turkey
defeat
stephen
##weight
##eline
freder
pleas
highly
titles
niger
experiment
##isa
guest
##aga
lor
prominent
combined
##wise
excl
##igen
kitchen
1931
1922
horn
dry
sweden
##owa
walking
condition
entry
captured
jess
conducted
combat
frame
disappear
samp
economy
1927
##asy
bond
compar
##aska
maintain
##olved
critics
4th
traffic
norwegian
implement
settled
flood
atlantic
yards
lap
prevent
seeing
##sk
hosted
listing
organized
kansas
grin
federation
graph
indiana
brigade
capacity
price
grey
internet
theater
##osa
format
##ece
assigned
operating
##fri
fash
efforts
tony
##ections
nice
disease
lyr
kitt
programming
drums
fully
1900
independence
votes
principal
##eless
nep
hat
throat
##een
females
uncle
##vin
recently
declared
##car
pand
feed
pool
seats
letters
vocal
empt
##cing
lam
rapid
needs
59
volun
rise
bah
turning
animals
follows
##heim
amount
1921
tu
taught
nap
thanks
divided
ky
escape
##ographic
dism
evening
distingu
zh
buck
resources
compr
fame
expect
##real
fm
affili
##enz
learning
exhibition
##9e9
e9e
e9e9e9
confirmed
roof
shall
colorado
shirt
immigr
silent
resc
christmas
##ibuted
occurred
transform
1925
transportation
weather
gent
pattern
##ram
column
poetry
armed
hart
basis
##ois
pip
unable
becomes
missouri
tai
constant
##oir
nerv
18th
sixth
1926
nominated
models
defend
retire
harry
returning
suggested
1912
typically
pilot
produce
##jan
accomp
amaz
killing
churches
fashion
##osen
nik
archae
davis
##regon
creation
literary
wrestling
scale
laug
gives
176
powerful
orient
generation
pictures
comics
##set
vess
falls
guess
consum
##respond
prepar
ariz
encour
virt
##water
camer
correspond
birds
picked
hills
rear
positions
purchased
reports
bos
gro
laughed
1923
##ilton
jane
physic
coaches
cu
por
lyn
malays
##orney
surrounding
ross
eric
fought
oregon
##apping
shif
teaching
ry
faced
spons
##aria
rif
seems
solid
gate
##30
##aine
communist
wet
##ordin
##works
mans
##inals
cris
terror
##ante
brian
category
##asa
commonly
##etr
obv
rav
colonel
supply
desc
wins
applied
focused
lect
##ounds
brazilian
divers
ways
sed
loved
strength
arizona
mathemat
strike
grass
arc
powers
institutions
jacob
attorney
jump
distinct
sid
classic
guns
##kh
sword
kam
respectively
400
proceed
##estic
gi
bodies
reference
##illery
1916
kings
bird
clin
journalist
vehicle
##urer
norway
kl
##lyn
athletics
##ito
shared
questions
weekly
roles
ranked
##anta
##apore
suffered
##hamm
cad
hero
iraq
philippines
pav
1910
##oval
##unct
1915
speaking
lewis
fel
tonight
tenness
connected
ches
##11
scoring
##aling
mast
directors
sight
presidential
intelligence
pieces
tank
##under
##bit
replied
ukraine
mosc
##iders
react
territor
orth
faith
budd
religion
hyp
tennessee
pale
gained
khan
beside
surname
weapons
calling
recomm
diplom
cher
conclud
vel
mol
##onents
officials
##lets
##opher
stret
bought
volunte
inspired
whit
conservative
##gers
joh
singapore
turkish
nam
pir
##come
brid
66
##pton
99
dal
guide
##ples
175
##sky
promotion
begins
refused
##ovic
finn
advoc
##omot
aqu
sell
ark
maryland
holly
##unch
pitt
pant
educated
launch
adopted
whispered
jay
laid
opposition
provinc
##ao
##ighth
princess
##time
hid
newly
minim
##born
bure
metropolitan
##ivity
theme
entrance
##je
tells
necessary
studios
##oured
admir
plate
core
northwest
1913
##cop
starring
performances
vert
occasion
glanced
62
larg
croat
estimated
wings
fields
chile
fred
##acks
soph
relief
marked
##aints
sri
check
hors
wave
ay
hou
ble
correct
criminal
neighborhood
cape
bowl
dram
tas
billion
##umped
##watch
linear
propos
sounds
grace
hans
##astr
painter
moscow
##amin
setting
alliance
pod
publication
##akers
vehicles
##no
steps
defence
granted
facility
chosen
lands
measure
figures
hed
reject
##azy
##ambig
authorities
alternative
88
enemy
summ
attacks
##otic
##isf
adapt
melbourne
pointed
materials
median
consult
streets
singers
coffee
swiss
serves
tag
tears
playoff
##ved
gets
artillery
constitution
fit
miller
twel
teeth
comfort
##put
walter
musician
##fr
gord
regions
poly
expanded
jord
southeast
##icient
##olas
orders
suppl
sche
alive
identified
honours
largely
util
nar
expans
merch
1950s
##oli
speech
si
covid
investigation
1911
nuclear
trains
##lah
arrested
jews
sunday
ni
hunter
injury
wearing
austria
bulgar
##inger
quebec
disambig
possibly
##uous
dv
load
##fa
acts
unc
sust
vision
legend
widely
thirty
reduced
narrow
##edia
##aire
exped
lip
##agu
disambiguation
allowing
ku
hey
colonial
mp
tropical
nich
##onent
jenn
provincial
stom
orange
ending
queensland
supporting
##ori
##alty
classes
##uge
mall
reaching
convention
passenger
weak
offers
twelve
crowd
##inder
holds
planet
cells
performing
basic
dean
interior
decor
##otyp
permanent
phase
##iley
##caa
wants
##ishes
actresses
bann
commonwe
##outs
aged
determined
95
76
athletes
details
easily
shit
warri
kev
##40
subur
appeal
ghost
jesus
ukrainian
candidates
iowa
insur
commonwealth
5th
##aled
height
##ounts
spin
97
leaned
anne
inters
gay
##pan
claims
dat
dj
lyrics
kids
##12
avoid
reality
connection
audience
fict
##uguese
continues
72
telling
pray
portuguese
1908
advert
resulted
trump
##estab
kentucky
vietnam
##ami
accompan
portray
fu
68
shape
toky
##gi
lith
danish
##inton
chemical
tow
bot
finger
rud
##kee
grabbed
contain
visual
gym
##ferences
passing
##gb
silence
ryan
cole
##olis
##atures
##stre
historian
philosophy
##rence
nag
israeli
receive
attacked
dioc
shoulders
violence
teen
150
##ugged
providing
##oti
brun
##19
priest
humans
damn
shell
##aug
##rit
vari
patrick
mes
##fall
wish
antonio
empty
jason
knight
cos
americans
63
77
sets
satur
www
##eral
anna
incident
knowing
write
67
sarah
##mo
roads
unique
bart
beng
resulting
armen
huge
anderson
pock
##dam
advis
##uted
gran
calls
dick
actions
versions
competitions
fan
##ilation
circle
##ni
tokyo
78
##umes
tra
treas
##osis
laur
greece
##met
propert
existing
85
switzer
loud
lane
lincol
belg
recognition
nfl
ford
properties
##erb
##acement
managers
borough
journey
reasons
##vi
ncaa
wy
paintings
lincoln
steam
domestic
learned
alab
switzerland
lifted
gramm
ends
##pe
flo
cru
##bell
##utional
cathed
lob
dol
wine
handed
##ucc
golf
guards
driving
covers
thor
##itled
96
##standing
##abad
rum
witness
cloth
billboard
clothes
##uls
portra
##alo
ko
conservation
occupied
neur
knock
ment
mobile
athletic
hungarian
identity
tone
schedule
ot
dynasty
ms
strateg
tang
##icked
bou
waters
##ographer
bachel
howard
raf
##mouth
##uther
anthony
98
stayed
##die
strange
northeast
images
##char
migr
chen
ambass
locomot
oldest
creating
kaz
oklah
doors
##chers
##otte
fern
beneath
send
##enez
manchester
ultimately
electronic
fans
##gas
myst
##wich
internal
jordan
pione
pink
##pool
succeeded
sail
turns
factory
17th
##lines
margar
##otes
unlike
##owned
oklahoma
link
dougl
graduate
buff
attempted
scheduled
##friend
fuel
obtained
spacewatch
rib
##onian
commissioned
clay
founding
density
hamilton
senator
##rig
ethnic
lan
circuit
arena
stuff
nad
69
pear
##ivals
programme
theor
defined
heads
repeated
##laim
etc
##iques
situated
##sch
flora
patri
tast
truck
lawyer
agricultural
disestab
d6
alph
##iants
recordings
knows
finding
impl
73
##aver
glad
##ird
plus
fellows
protected
74
subsequent
shooting
sick
youre
rick
dave
hip
liver
61
##apes
veter
ern
advant
sale
sector
bapt
gib
retirement
##zen
strip
loan
drawn
trouble
landsc
##anny
opin
ech
rare
bid
##ifer
animated
fictional
greatest
buy
marie
mississ
keeping
stomach
##icut
##mans
##di
##ugal
1905
1909
banks
desk
blues
##ateur
##cript
methods
multi
stor
##oto
ride
expansion
##eller
##fefe
recru
chain
centuries
##ti
1906
consequ
bachelor
alabama
listen
effective
containing
abandoned
##ache
tail
behavior
##ikh
lemmon
nin
visited
##lan
##eland
##onomy
interact
composition
##load
##izz
thoughts
alan
82
##ingly
seventh
##oted
1907
86
introduction
universities
sv
broadcasting
elementary
87
##eed
##mitted
partnership
vampire
harvard
argentina
##ista
nom
synt
salt
austrian
##hu
extrem
##eston
collected
establishment
##rad
approved
##idi
sang
comic
concer
##agan
kon
aired
attempts
message
entirely
##umber
papers
southwest
allows
ian
mi
kevin
portion
electoral
opportunity
matthew
##ologists
fefefe
##ublin
prix
##iva
hamp
specif
reaction
prefect
##aro
05
fighter
cha
communications
##cement
##ran
apartment
pope
guys
joy
hits
fold
smoot
walker
cabinet
starts
##d6d6
d6d6d6
representing
gain
##ardo
reign
samuel
dall
confeder
receiving
resistance
##olished
##ses
soundtr
neither
dod
opposite
colomb
lank
diego
08
application
##ippi
houston
josh
taiwan
##ries
philip
metres
bureau
superv
locations
cannot
cathedral
unf
causing
##iere
salv
anyway
##icial
communication
dynam
lists
explained
dc
strik
juan
flowers
settle
wealth
task
quant
withdr
noticed
##view
qualified
nose
sie
equal
trained
femin
89
06
##uri
##oslav
maximum
carp
##ictions
wake
cous
colspan
infr
92
ug
allen
##ken
statement
interp
heavily
gordon
duty
douglas
##erto
chapel
phill
surprise
connecticut
sacr
experi
##ager
lights
saturday
emergency
blind
16th
merc
translation
##ho
restaurant
79
belgium
mile
dragon
07
##usted
##18
grav
berg
##okes
##dd
1904
flower
##raid
##roit
##tering
lose
horror
lanc
scholar
sty
##iments
pas
##box
shaped
selection
##ulate
islamic
flu
offices
##alt
##ules
serge
##uses
09
84
##istol
louisiana
worry
agriculture
thats
signal
##agen
##ares
invited
falling
ltd
maur
frequently
conversation
examples
indigen
achieved
clearly
ceremony
inhabit
seed
wasnt
script
##oa
shock
hud
standards
tongue
rio
shadow
yourself
existence
excell
sque
parliamentary
relatively
fuck
cm
##stan
controlled
##atus
showing
homes
invasion
##aux
##ieval
briefly
regarding
deleg
endemic
amateur
emph
##bra
##gor
prefer
selling
##father
##15
rising
wels
##agues
pages
93
gene
string
shield
##kel
mississippi
##ghan
emigr
harm
detroit
crossed
##cles
1903
myth
learn
muslim
mole
advance
flash
##elli
jaw
injured
doubt
depress
tab
flow
##iliar
session
##essions
puerto
recon
afraid
mack
pow
missed
hide
morgan
palm
roger
indigenous
carrying
frederick
rooms
request
notice
##cious
annivers
portugal
##icate
overs
ast
inaug
failure
consisted
denmark
crack
wooden
1901
drivers
loy
crisis
admitted
##iami
montreal
bent
1902
torn
dir
interested
recall
http
consecut
treaty
dinner
otherwise
##ads
exclus
haz
franch
bush
##iller
satisf
adap
04
lux
coordin
registered
stream
brick
##western
ze
canal
instruct
94
harris
barn
temperature
butter
landing
dak
michel
copies
nel
universal
aviation
parks
prepared
cryst
miami
tend
##opter
distinguished
pressed
canc
edited
caval
##zh
converted
constituency
kelly
liqu
welsh
cc
1930s
charlie
surg
##iven
singing
finds
barely
cinema
##inces
##oen
contained
anniversary
formal
indonesia
##ching
sought
##ladesh
negoti
##rison
cash
pitts
expedition
bangladesh
##oom
upd
contrast
ss
83
innov
ja
mental
03
vinc
metro
6th
bund
patients
struck
hired
##ucks
alleged
cricketers
##burn
specifically
fried
diamond
ideas
##body
refuge
##dale
desire
ted
surprised
palest
##ifications
backing
frag
finishing
alexand
craft
##asm
billy
roc
chronic
legacy
##16
rival
clock
apparently
uniform
ministers
favour
gentle
employed
moore
pill
02
monument
assault
qualifying
enfor
tort
satell
negative
hungary
photograph
classification
bringing
chose
##eph
##icide
shout
twin
##eck
archive
##utt
##illed
##uma
edin
profit
institution
cot
translated
scenes
entitled
fired
stick
##umin
ric
lod
amend
##kshire
elder
extensive
##abil
remembered
tied
stup
opposed
rolled
threw
##ecution
dates
residence
understanding
consecutive
benn
beauty
##atherine
swimming
evil
courts
credit
maintained
gabri
medieval
##rell
formula
##agh
##17
subd
##eton
vik
enr
push
margaret
chec
resigned
parall
rhyth
##ello
sisters
##pers
worldwide
gm
nurs
applications
funding
##hist
##hammad
2000s
7th
soldier
crazy
##rete
##oked
smart
##anne
stew
dies
conqu
outstanding
finance
breaking
pig
explos
appre
dublin
bord
runner
exerc
hem
closely
lying
shah
tip
remix
scientists
employees
chuck
besides
tie
absol
dangerous
inher
camera
inner
branc
##aceae
cock
170
profession
joining
symph
fisher
venez
budget
ic
hawai
slav
nev
##cia
174
limit
emphas
touchdown
functions
trophy
##gie
dismiss
painted
hydr
liked
pure
staring
assass
index
divisions
##enh
##dered
expos
##ibr
hook
inch
criticism
edinburgh
furn
symbol
circum
occas
answered
romantic
##acent
recipients
gig
##imb
tamil
decades
alfred
##din
stands
pel
##odox
##tv
desert
mining
contributed
productions
cord
investment
##grad
##how
##omer
1898
##14
malaysia
derived
tiny
merged
raw
views
songwriter
licens
skills
##13
pierre
plane
observed
difference
wedding
asks
donald
hearing
painters
soundtrack
giant
defensive
bun
lawrence
neighbour
decre
developing
incorporated
##bu
arkansas
##bish
fantasy
##wal
hir
mond
boss
extension
convent
remind
crossing
liga
atlanta
ancest
deploy
illeg
arn
aftern
##oda
expressed
honour
discovery
jimmy
hyd
166
tomor
##heas
johann
##ucture
photo
influenced
##aved
hunting
engaged
darkness
passes
param
##uces
waited
defunct
funds
carbon
##otted
equival
##stream
belgian
occurs
engineers
cycle
pse
bedroom
##sex
hole
rig
1899
medium
##bar
attached
##ologies
tig
submar
dvd
promise
##aks
counties
synd
recre
finland
judges
successfully
johnny
160
bands
diocese
economics
proced
kan
afghan
actual
blank
168
acid
beet
grounds
assumed
inhabitants
gender
protein
peters
tunnel
tomorrow
cheek
importance
hollywood
yor
municipalities
asking
##ailand
pocket
##rane
calm
##issance
advantage
genera
weapon
craw
objects
victims
argued
##cription
assess
##ieved
magazines
paus
spell
##night
##pur
transition
drawing
##life
##iner
renew
singh
lakes
dh
##gal
woods
##ipe
collections
affected
##iya
seb
scor
audio
prisoners
seattle
junction
gill
intel
associate
nur
thailand
newspapers
##hetic
foss
worse
cler
##ayan
gymn
##oyd
breed
proved
taxa
pseud
rush
underst
evolution
##anian
accused
mail
stating
documents
teachers
underground
lgb
tru
##ders
mason
shore
engines
##oria
socialist
##eals
##veland
dust
fixed
##ven
karl
1890
##do
##yers
downtown
##po
gast
lean
concluded
mps
pitch
##lon
alco
explain
dallas
compilation
hidden
ranking
organisation
grah
bruce
voted
utah
1895
cleveland
depend
helping
yug
##emen
disney
##mm
praised
##nie
1896
penins
##ographical
cul
romania
manufacturing
offensive
angry
sighed
##udi
wes
##usal
rolling
survived
coat
##lusion
ottoman
##ui
serbian
incumb
nord
ridge
##while
gross
doubles
1897
vul
denn
items
installed
marshall
##oking
involving
winds
##ortion
##chi
rebu
producing
interpret
causes
guine
delay
christopher
physics
familiar
##asts
producers
dating
leads
lgbt
pulling
pittsburgh
coastal
noise
stal
sugar
universe
orthodox
chase
vin
##ocated
##ogs
nas
romanian
tack
kissed
##oust
coc
molec
ris
horses
charged
imposs
rescue
habitat
leaf
belief
swall
kos
monaster
grown
pregn
bin
covering
wounded
##nat
journalists
og
afternoon
combination
friendly
refers
##incorporated
##borough
poems
argentine
##iah
dee
##omy
collaboration
pandemic
tak
goods
##tra
##heastern
adjacent
##orph
lud
persons
adapted
concerned
premiered
##ando
arranged
##uate
colleges
experienced
russell
assistance
surrounded
venezuel
unus
anger
device
eu
lac
typical
##aughters
smooth
moths
anch
somewhere
couldnt
stupid
gest
plain
rect
##ivia
##acle
depos
commissioner
monarch
172
purchase
delivered
13th
guil
mud
ruled
capture
facing
##etime
##umbled
finnish
compete
##lying
cave
##ocol
composers
honorary
jake
eleven
forever
consisting
unincorporated
marry
164
tob
tact
hunt
regarded
substit
##yard
anymore
charges
isol
rifle
desper
12th
##esc
##apolis
carter
thunder
residential
opinion
passengers
unless
gear
factor
saints
aside
##tle
stores
enl
rhythm
##iti
##etta
##itely
chand
hate
committed
violin
##tic
10th
manus
##alia
belt
baltim
odd
contributions
infrastr
169
##liest
switch
##ras
battles
##rees
handle
invent
##ais
##ye
##ycl
carlos
trem
nash
lon
volley
173
orle
expand
baltimore
datab
retail
nan
167
yank
diet
additionally
##oft
##iac
cs
authors
##rican
shed
fruit
enterpr
chanc
designer
changing
8th
##ctic
promote
gardens
users
destr
##iki
pic
file
improve
pound
austin
##chell
paraly
1892
##heless
##ovo
oblast
childhood
##ext
colony
daughters
adventure
gary
##pson
##hs
wondered
vas
membership
biggest
improved
##boards
ambassador
insurance
decade
1893
comed
##mi
colour
chess
photography
weekend
veget
wore
##ensions
##orus
jonathan
sections
revival
creative
##gow
hurrican
tries
angl
spar
mak
gw
shrugged
##itals
slid
1889
phen
bast
museums
shan
smell
damaged
perc
spoken
hend
thousands
monk
##olo
ceo
graham
15th
temporary
##icit
norman
prefecture
expert
wol
fasc
sult
600
orleans
rating
jar
discography
yout
campbell
##ontin
##hy
##angel
stewart
##pass
solar
glas
manner
charlotte
##low
hoped
luke
1894
nelson
responsibility
##bow
cards
isa
beer
gur
releg
shir
artistic
grandfather
techniques
mirror
capable
routes
alice
##organ
testing
##issa
putting
leban
kennedy
hab
overl
approp
burning
##ographics
rit
vienna
interests
##anz
##estyle
cousin
thompson
pyr
strate
adams
measures
throw
resign
wrapped
tub
##uits
sib
##leton
values
yugoslav
touched
mathematics
obtain
nickn
##ading
##iop
lex
drove
distributed
liz
burned
##rum
masters
##uster
dressed
kin
strategy
1885
abc
usual
retre
ng
bernard
ivan
ml
1891
displ
franchise
demographics
##crib
encoun
bog
noble
separated
##uki
parallel
undert
andy
infrastructure
ages
micr
maine
##enne
storage
extremely
14th
aware
lion
stages
rice
##aman
spend
lig
franklin
divor
sounded
##zer
superior
##right
margin
option
##aza
threatened
gulf
sanct
##ront
worst
##acted
honey
moments
eval
tier
renov
relax
arrival
01
select
##going
hob
knees
returns
substant
ff
kath
120
terminal
pleasure
accom
cel
hampshire
raise
##annah
imprison
horiz
fifa
##haw
wire
caf
##ieties
knights
clan
baker
carib
ski
designs
kum
eighth
shift
portland
revolutionary
##intend
##ucing
lav
stairs
azerb
9th
willing
massive
guid
eug
fo
azerbai
operate
##orro
##wall
landscape
portrait
liverpool
##atically
micro
describes
bom
mars
instruments
kilomet
erect
panel
wright
wag
##illing
phoen
morris
fishing
tribe
##mers
neut
##entially
courses
breat
accompl
impossible
resemb
somehow
poets
agree
executed
165
enh
crash
starred
800
faces
user
162
cavalry
scheme
##oni
equivalent
luck
diagn
broadway
sole
meanwhile
reduce
##itated
button
nazi
fool
##ashi
concrete
offering
##ski
worried
warren
historians
certainly
inqu
asc
1888
bridges
sequence
honest
movements
sul
grim
juris
##ommod
forth
kay
purposes
honors
##ancing
suicide
reun
warning
linked
brooklyn
satellite
##lev
replace
petr
kun
poem
atm
closing
stanley
severe
repair
##isms
##mes
hub
##efa
fault
micros
conce
tap
rachel
determin
accompanied
frances
notably
innoc
##zi
birthday
commune
250
aar
##issions
##mingham
feelings
murray
battery
spiritual
fifteen
##aware
accommod
mamm
scand
##iters
coalition
sebast
speaker
bears
territories
resolution
rowspan
volleyball
2010s
branches
manh
robinson
casual
fallen
lawyers
toy
benj
arrest
##apy
context
rejected
zero
apple
##tha
riding
uefa
goth
monitor
videos
editions
legislation
dear
signs
legislature
evans
serbia
forget
chick
businesses
##ranean
duties
understood
dreams
movies
##agger
bra
favorite
pian
ninet
construct
##attan
didn
parent
dakota
71
archbish
quietly
coaching
forb
##ogy
driven
nba
##utation
approached
locality
participate
filmography
##rett
##kar
##net
1887
soil
##inae
demon
mong
##oka
##tress
birmingham
heaven
earliest
peninsula
merchant
tech
##lov
concerns
laboratory
accur
masc
emma
rever
secure
venues
##cha
rocks
##bach
brew
##orted
##ussion
rar
springs
costs
scholarship
ferr
##inian
ral
regularly
analy
alp
youtube
##igation
grave
##ture
1880
madrid
congreg
studying
meters
earn
incumbent
luis
lung
##olve
cod
regulations
##imate
locked
degrees
roughly
##know
kate
trig
sean
1865
11th
admiral
assign
descend
##what
businessman
determine
pup
disappeared
debuted
pole
barry
tea
egyptian
griff
medals
credited
indeed
ownership
till
##orf
1920s
##asha
81
racial
activist
mediter
##arus
shifted
persp
mode
confront
surge
pont
nova
constitutional
marit
##bal
1886
entering
prohib
bil
pri
factors
sultan
bind
dancing
hoping
iranian
##attered
##iology
defeating
##nia
gently
forming
##rick
abbey
wre
manga
softly
##ties
credits
##bel
clothing
##urt
##lington
wayne
mood
bishops
afterwards
mounted
##asp
isab
oliver
##iri
passage
##iba
acknow
commit
provision
pron
occupation
gods
vlad
jama
##hard
##mal
continuing
math
overse
intent
summary
garr
license
##adi
infl
rico
charity
matters
drugs
adding
surren
stu
restored
##ario
##olves
##arn
passion
disappoint
marketing
prad
##coming
guilty
nun
visiting
marks
##itr
voices
prompt
helic
ri
tigers
##face
##bean
##illo
eddie
saved
appointment
landed
nigeria
cited
##ophone
basin
uss
ensure
tourist
knife
paralymp
forests
socorro
instrumental
formally
patt
somewhat
1884
marath
##bul
163
hundreds
warner
tired
flew
leather
cloud
nicholas
mate
parad
##ecess
friday
liquid
talent
pharm
taste
vincent
bak
surgery
gift
seriously
##eta
bold
dart
communes
playoffs
personality
commem
smoke
meg
waste
##cs
controversy
depth
##rome
##alis
##asi
pover
##eenth
choose
martial
##owski
symp
maid
bone
##tenance
cum
guitarist
dated
##mate
##phy
mitchell
alleg
benjamin
##80
confused
##mus
criticized
##acher
preced
##ilst
toss
carn
normally
policies
beth
forty
shopping
##aig
##pm
91
semif
deck
##aze
chemistry
absor
milan
replacement
##aring
1864
triple
allied
au
carefully
ghana
##iko
electrical
##erce
peru
filed
##oves
richmond
fifty
curt
interrupt
restoration
len
barbara
hut
parking
trick
poverty
##urg
159
kw
withdraw
practices
1861
yorkshire
##lie
sustain
fol
random
worship
parker
nr
visitors
##acht
retain
resort
luther
cable
bullet
devices
hosts
##uda
sink
##anche
standings
seek
consp
publisher
reconstr
1881
networks
mediterranean
mini
kor
##encing
##uccess
solution
thorn
boats
##ahn
1870
kg
worksh
tourism
##case
export
subjects
##amer
agents
##encer
unsuccess
eliminated
losses
##ounced
crimes
##itable
##estr
symphony
nut
glasgow
circumst
rip
##enses
1863
##eler
outer
faster
begun
rounds
##gle
corporate
charter
##place
lanka
tools
nomination
experimental
tests
font
hyper
occasionally
fed
##orship
flesh
balance
atmosp
realize
rebell
responded
transit
architectural
visible
choir
gust
database
coverage
dna
serial
employment
genre
depression
portrayed
progressive
operational
whilst
lp
##oker
statue
##ouver
##ielder
retained
##mund
patient
cypr
mold
##master
stamp
blond
##oba
domain
duc
phoenix
memories
##aa
sung
intention
julian
1882
sheriff
horr
helen
breathing
yu
guer
hindu
##using
breast
fled
fitz
summit
decide
existed
anime
lingu
centers
gotten
rangers
commerce
lucky
slovak
scout
encycl
vessels
tib
demanded
debate
represents
adaptation
boundary
accounts
buffalo
enjoyed
entre
meat
lis
mystery
classified
aj
waist
giants
hanging
bio
phr
bathroom
1862
meets
aspects
initiative
aunt
synthes
baptist
relative
operates
blocks
adults
marvel
vary
##alf
mig
amendment
treated
sut
benefit
gap
appearing
nebr
guinea
hull
maintenance
burst
##certain
lag
##yon
##yler
feels
tri
gabriel
swing
strategic
significantly
stress
differences
organis
volumes
##ingham
nest
##imp
##order
##away
missions
jobs
sz
##olia
moves
##thy
ports
kap
agencies
quart
##nik
voy
depict
bug
jen
filmed
incorpor
##ige
voting
struggle
jury
caribbean
moll
jerry
lions
plastic
archaeological
##itched
sees
fate
echo
##obi
lucas
acoust
copy
industries
promised
ears
recept
##ruption
channels
archives
mull
shakes
vanc
alaska
pine
survive
##aments
origins
pd
pent
rou
bible
ethan
##fia
indicated
delhi
extreme
rus
acquis
voiv
forum
approval
holiday
acted
ladies
width
percussion
##ashing
##ishers
emerged
nevada
patrol
##olt
ns
##sters
surviv
##ivan
wang
false
guar
##enson
alcohol
intellect
##imir
runners
colombia
sha
heading
successor
shaking
jumped
1883
technique
##ido
mills
sigh
##oga
gau
nepal
reputation
##boy
##ascar
rol
warriors
##bot
cabin
coron
##cred
yam
paused
mines
vessel
1878
costa
scientist
hugh
injuries
##berts
pradesh
jet
sentence
dy
##omen
suggests
truly
hood
monster
victorian
affect
dogs
bub
clinical
madison
serie
encyclop
bic
pm
##point
wildlife
suspic
obviously
syl
photos
##estone
lun
beating
##nan
requirements
airlines
activists
##icing
ninth
##uli
crystal
nebraska
tum
##mel
mechanical
sara
illegal
ruth
chel
replacing
##iph
archbishop
sao
guardian
##uzz
suspended
imagine
manhattan
##othy
demolished
peop
prel
muhammad
spending
witch
heir
##ulu
156
denied
penalty
letting
1876
busy
##omed
##oop
proposal
alger
emer
sleeping
roster
bones
stef
##sea
vancouver
alberta
prote
susan
indians
equipped
dece
hein
signing
moder
bobby
exception
roots
punish
corp
cinc
ive
cliff
representation
bacter
detective
depending
blow
markets
va
turner
gathered
scope
##mat
##usalem
philippine
resid
filip
slave
neil
##gate
monastery
##anes
sculpture
daw
kol
participation
##oca
killer
interesting
peaked
festivals
1940s
tribut
crick
flows
trading
wis
cotton
stuck
drinking
unusual
peoples
fabric
##equ
craig
railways
##fast
##aha
gut
prost
exit
nominations
maritime
seeking
smiling
consol
tyr
orn
jerusalem
vast
frustr
tick
err
sporting
diction
157
##iture
rag
makeup
dil
arabic
signif
perp
##erted
powered
experiences
genes
definition
##igar
processes
##fare
bour
##nal
tat
wanting
##fam
1879
popularity
foster
competing
compre
emily
competitors
##donald
155
naked
##enburg
##jab
suffering
sak
hamm
##ipts
ip
mend
locomotives
##aca
hurricane
indicate
siege
anat
##abled
destruction
collins
##mill
##inter
supplies
harrison
animation
reinfor
earthqu
components
trinity
mul
spider
advice
pere
frequency
manage
larry
exha
##opes
continental
hawaii
##iors
##break
traveled
jerem
longest
bother
##dles
cyl
##uka
definitely
protests
##rix
hispan
kirk
##elia
moroc
bristol
electricity
aggreg
waves
##acts
logan
specim
minimum
amph
afghanistan
bench
rates
throne
nu
involvement
exposed
themes
surviving
premiere
1860
##mother
amongst
##eted
voivodes
talked
enth
uncertain
##ivated
segment
catherine
##otype
reporter
goog
130
croatian
sebastian
chancell
##ulus
pc
colors
rapidly
pon
##stad
ling
quad
##enda
##kov
##jar
illustrated
1875
1877
farmers
chal
##antine
prosp
meetings
chi
participants
cargo
cbs
bru
dying
backed
##rets
sloven
##lings
cort
terry
adela
printed
sprint
glen
graduating
##mates
##holder
devil
revenue
##ception
##feld
journals
sessions
rodrig
eating
trent
voivodeship
das
belonged
reprod
maced
indoor
glac
possibility
declined
##hum
1867
adopt
hudson
dual
tent
convicted
1871
nervous
til
myster
preserved
danny
##iration
ecc
tribes
gamb
milk
drunk
stir
antar
slipped
henri
seeds
peer
architects
sentenced
blake
immediate
vegas
##inations
detail
py
##zo
ced
democracy
eagle
listening
youngest
knee
botan
integrated
ralph
vern
conscious
characteristics
bottle
158
manor
processing
##anim
godd
strongly
jurisd
welcome
butler
snapped
##iciency
##acked
loop
cleared
abuse
bengal
stol
photographs
##cling
achieve
spaces
mick
rust
decline
beck
venue
saudi
boxing
tale
##eon
jamie
aur
modified
barcel
councill
outd
instance
lasted
sap
1874
corrid
duo
voiced
1872
leo
stem
aber
subsidi
##agement
violent
relationships
##abilities
commanded
avo
mik
sic
1868
discip
##igo
texts
##yll
##grade
angels
##credited
##idad
obvious
stones
sull
achievement
murm
friendship
jin
keith
keys
##wig
##fish
dum
##teenth
laughing
yang
influential
researchers
merit
montana
sending
aimed
mck
motors
https
fier
requires
##aws
##engt
optim
timber
##val
purple
julia
##enberg
uncom
circumstances
harbor
funny
stable
possess
##osph
cott
gif
##kan
steven
kle
##hal
armenian
##isb
pride
strang
##eva
psychology
mixing
villa
disestablished
prove
perry
platforms
maps
gates
wells
nak
theod
commemor
claire
increasingly
heb
copper
##omon
borders
counsel
releases
##lett
radical
##eno
wu
whereas
kab
cuba
useful
triang
raising
lamp
tempor
lloyd
keyboards
celebrated
remar
competitive
##keeper
poison
##nell
##folk
gren
recur
advertising
##vis
bry
todd
strict
filming
lifetime
google
1873
cooperation
settlements
##sm
canton
viv
anthrop
lil
##iece
absence
##ving
valid
dawn
roberts
blade
victim
##aco
geomet
attracted
##van
sank
gle
ensemb
##hill
guests
##oving
nbc
beij
gam
acoustic
outl
departure
gem
cancelled
ferry
##ammed
1000
submarine
teleph
nights
biology
couples
sket
##bled
1866
controll
murdered
innings
oz
wer
affair
##amental
incidents
##icking
##fortun
##eo
shoes
ya
funeral
remove
manif
screenwr
shower
considering
biological
gul
deserv
sacred
bald
shake
provinces
leagues
##laimed
chat
punjab
ceiling
dock
##athy
##eries
overview
barcelona
shaw
ki
cincinn
wool
virtual
azerbaijan
zur
tul
distur
trials
completion
##23
adelaide
illness
loose
tiger
arrangement
recovered
##hor
justin
cutting
explan
bare
flav
ou
##drew
managing
detailed
amy
simpl
nearest
herbert
withdrew
monthly
marcus
##helm
alien
##25
##gart
##istical
##istani
dennis
lift
describe
##usc
uh
stuart
beijing
deeply
swift
##inus
harold
viewers
principles
##via
##oys
##brid
theres
ost
anywhere
gradually
similarly
ai
##aho
cincinnati
icel
##urers
organisations
##fs
##berry
licensed
sponsored
massac
concentration
ballet
cec
download
elevation
munich
##rical
legion
civilian
tiss
ank
wides
contribution
##oded
##sed
auck
croatia
motorcy
overseas
##vo
kidn
##ogan
scared
sergeant
##acon
110
##ju
posted
auckland
sne
tours
##crimin
entrepr
cream
emigrants
volunteer
##urally
worn
elite
sier
pace
##ropod
uncredited
##itter
assum
iceland
considerable
##fire
##gio
prol
##aser
laura
holland
reservoir
unfortun
eagles
tool
qualification
riders
citizen
##icance
sweat
yale
eyebr
gonz
krist
simult
judg
tales
possession
transmission
125
defending
mant
ft
##fly
proof
shares
eve
pioneer
easier
escaped
liberty
lunch
amster
ruling
slip
##rah
simultane
denver
affiliated
telec
patron
cosm
sag
cla
##iveness
grip
##eli
bulgaria
bulgarian
ethiop
700
pond
vit
nhl
discussion
elig
valent
upset
1869
dere
touring
##60
supporters
hispanic
belonging
abroad
styles
##assy
##rant
##holm
vulner
wick
hammer
unex
jav
##inted
entreprene
physician
##icul
##endar
claiming
persian
feather
proud
capit
##agre
collaps
significance
pruss
raz
recommended
##ahl
reed
enforcement
acknowled
nomine
governments
blast
decisions
baronet
prest
appreci
amsterdam
connor
elli
allies
annually
donated
forehead
ibn
##asia
guild
debt
limits
##ibute
##itarian
intense
regime
sharing
##oi
shadows
blog
humor
rally
##inction
highlight
cricketer
##aba
garcia
fid
chan
##people
##stairs
celt
valu
customers
eggs
##achi
vampires
tir
ana
genetic
##cht
effectively
##olds
anx
defenders
cheeks
derby
excav
##fielder
versus
afford
##osaur
stall
bars
##amese
murphy
##itate
ernest
pushing
stern
##ayer
essential
insects
edwards
##terior
ranks
##esty
cn
happening
##essa
identify
##udes
vig
hiding
brill
##ivery
thai
senators
gilbert
incred
emotion
glance
harder
wik
totally
alpha
amazing
##enos
##after
remote
careful
gav
tommy
manuel
##oly
##tm
##eing
venezuela
girlfriend
##lock
grinned
fighters
autonom
##castle
wip
##ivation
partially
##umps
benefits
##inced
##erie
aux
punk
funded
wished
rocky
spark
conj
##anged
##math
##chy
tribute
occasions
recommend
##ulating
skull
colin
automatic
intersection
encl
rah
##pread
rena
##family
##osing
manip
delivery
reaches
hence
forgotten
##izer
##ennial
formations
comprehens
permission
rook
byz
evangel
caps
flex
encouraged
root
hack
reh
reportedly
cp
tut
gn
filmm
jail
hospitals
weird
1859
belarus
kenya
154
widespread
output
spencer
gol
delta
seth
attributed
jefferson
sask
##onymous
commented
hect
informed
cardinal
hr
diver
continu
frowned
##anga
##state
fung
##ichi
intermedi
romance
voters
ware
##osc
mead
nurse
norfolk
##ete
rebellion
rated
##ilia
rey
aaron
contested
maz
orb
angle
1850
tenure
technologies
partly
breakfast
dollars
carrier
erected
files
populations
silk
harmon
inaugural
rogers
commons
taxonomy
##ovsky
remainder
slight
anticip
aggress
nee
153
argument
sheet
vermont
functional
vibr
behalf
apost
presid
excellent
##isha
tomb
##ashes
minority
unn
doctors
tol
unanim
kicked
convinced
nobody
##mad
disaster
jacques
buddhist
##omi
vacc
thrust
shouted
##ocation
hebrew
canon
exercise
hi
##aper
stronger
trio
thorough
##ieve
devon
ard
hond
diseases
##su
prosecut
embr
##liga
artific
1848
##backs
##ographers
latest
##iaz
hast
apolog
concerts
herald
fellowship
dozen
opponents
##echn
vertical
##ovich
panic
stare
compound
practical
indonesian
##gets
monday
rarely
1857
emotional
nevert
welf
shin
propag
excess
##oning
diameter
##oric
##amo
harbour
predecess
nevertheless
autumn
appropriate
indicates
##uration
wander
ranch
isaac
##borne
cameron
fi
collective
muttered
subsp
operator
muslims
delaware
##lus
##dp
cruc
athens
anglican
syria
discussed
##opsis
arist
xi
bonus
constituencies
companion
opportunities
diplomatic
sympt
burg
##keley
iz
##graduate
outdoor
discrimin
abra
##ener
##card
dismissed
orch
controversial
tamp
lisa
clinton
registr
aftermath
expensive
liberation
historically
stops
kas
publishers
##ema
##utely
aster
##ampton
##anni
##achment
##ovan
exhibitions
neutral
explor
##24
recovery
suspected
heroes
##bie
tournaments
##opp
owen
venture
oxy
##opr
camps
worker
trigger
layer
stun
##ulum
##aping
businesspeople
ratio
democrat
stanford
dictionary
hated
assets
##itis
pakistani
##eping
greatly
leonard
restaurants
beast
persu
ingr
athlete
secured
machines
hydro
cf
abu
jeans
twisted
knocked
moh
##ridge
bend
dors
memoir
cork
jag
cartoon
ultimate
ticket
neat
chester
dirty
attending
##iji
relev
##ucker
suppress
subdiv
ceased
##ouses
warrior
##tz
stim
dominated
ober
consolid
chancellor
saskat
auto
patterns
disband
malay
stroke
##arrass
extent
lets
rocket
colored
clut
advisory
certific
ignored
nac
forwards
mask
cattle
anchor
fee
pete
##dish
sierra
evac
##emed
##ea
remark
unre
lok
##abet
nathan
ein
happens
sevent
explo
embarrass
tuc
toll
periods
adventures
playwr
##wers
exists
supports
astronom
democrats
component
couch
ties
cried
lamb
anglo
marqu
jak
frequent
pub
dug
##gom
##ixon
bav
snake
brisb
drummer
xx
berkeley
conclusion
raymond
scores
pump
##urr
grandmother
dw
execution
connections
##aven
##ectors
petersburg
ordinary
enthus
dramatic
##inson
placing
preferred
categories
relation
midfield
nigerian
compens
brisbane
perm
##apse
laure
territorial
140
florence
germans
md
staying
presidents
squeez
rebuilt
cyr
bras
101
bout
pants
pedro
haven
vil
alternate
pregnant
enemies
episcop
boundaries
welfare
alter
writes
yield
##icus
pall
laz
relocated
narrative
urugu
searching
fisc
academics
qualify
organised
##roc
ecu
assisted
lucy
ongoing
northwestern
pi
gosp
##uin
sear
cardinals
##uez
traded
kre
elsewhere
muscle
hier
arnold
opponent
joan
rut
therapy
ideal
bert
revenge
tox
essay
valuable
thirteen
gothic
deuts
cree
spear
lover
ottawa
phd
##part
partial
cruz
publicly
opens
viewed
harvey
sony
inspector
oscar
ramp
##iao
displayed
admit
atom
statistical
1800
lowest
##unction
clou
reporting
thigh
badly
##bling
predomin
percentage
kend
steady
merely
abstr
gregory
facil
goddess
christians
1854
leeds
virus
##gins
participating
dame
##icia
##onaut
fortress
##ean
cox
##esters
1858
acceler
##oshi
grove
epic
sox
##eto
peng
coinc
enterprise
prayer
recipient
thereafter
##itary
##othe
distant
conductor
wellington
midnight
emotions
sod
thriller
reass
##rat
##oons
immigration
tenth
sample
105
volunteers
duncan
struggled
creature
forcing
stere
eb
declar
watt
renaissance
##kes
ensemble
tanks
earning
jor
moral
soap
bloody
sixteen
apparent
##rik
connecting
pearl
vladimir
lily
tape
tin
exclud
gauge
##ansk
scent
administer
hod
trace
##olition
somers
instant
##care
substantial
awar
missile
bread
dirt
##pled
##urst
##brook
##andez
discontin
stair
pitcher
algor
wallace
##lem
swan
strat
attractions
tav
perspective
watson
corruption
##oard
##eda
comparison
recognize
confidence
newcastle
congo
apply
reduction
acquisition
##lete
substitute
stab
riv
regulation
1855
crypt
bach
##pping
resource
aus
stiff
##haus
##ibilities
extinct
congressional
3d
seal
##riers
requested
deport
##pher
strengt
characterized
assessment
generated
perce
tables
##lights
condem
##leep
dent
slaves
##oven
algorith
mistake
mann
climbed
##uctive
awareness
##anthrop
##eve
##rin
wider
##agar
tyler
moz
eldest
jacket
concerning
##isch
options
corridor
##cribed
##ettes
christianity
preservation
ster
rushed
grammar
galax
embassy
photographer
cun
farmer
overw
shim
overt
burns
consumer
lodge
##oko
##eps
ji
##iler
wilhelm
comfortable
escort
speakers
terrible
spart
cigar
##rine
pec
##alam
boyfriend
traditions
##22
pirates
consort
nephew
##ader
exclusive
implementation
screw
##70
underw
departments
sullivan
preparation
##station
##iago
nc
attempting
towers
confusion
venice
criter
fog
##caster
napole
disestablish
##enders
lowered
##ghai
##dal
wouldnt
##bles
##uations
helps
##aters
radar
mechanism
##hin
##ester
##yne
judicial
certified
hollow
nem
##inated
heights
rams
reluct
chamb
rode
stake
unw
grows
telephone
immigrants
rent
conversion
sequel
confederate
1856
derek
arriving
egg
tunis
abraham
monuments
##ums
adrian
deeper
##ente
pitched
throwing
latino
ek
ceram
##enched
lebanon
prisoner
fauna
##opl
##xual
prelimin
journalism
tender
ceremon
telegr
mim
bever
tons
torped
deliber
establishing
loyal
##oan
##lain
trev
vid
recalled
literally
perfectly
principle
interviews
guit
chorus
1852
tension
kerala
interch
neighbourhood
merger
trap
completing
##aukee
thrown
conspir
deployed
exceed
muscles
dispute
dancer
bosnia
cogn
farming
ecuador
continuous
globe
shots
hardly
warsaw
kyle
##bek
asleep
steep
boots
bills
arrangements
arsen
suburb
maurice
wonderful
##gun
organic
talks
phillips
switched
figured
francois
freestyle
manufacturers
challenges
calendar
##rington
##oro
traveling
traditionally
##bound
writings
##ahan
##ylan
jurisdiction
##cester
##ensively
subsidiary
stolen
idaho
celebration
suz
mild
terminus
leop
##etti
banned
variant
##uy
duck
kazakh
##rog
hello
ming
doesn
brut
compositions
settlers
isolated
presents
furthermore
pairs
##umi
##atar
protestant
bened
cauc
yours
artificial
friedrich
editors
buzz
leaning
bite
stakes
##olph
franco
assists
##90
faint
##cat
relay
innocent
manufacturer
noah
dip
reyn
wealthy
topics
lightning
##rie
revised
fist
kash
drafted
philosoph
ces
roche
coins
##ourse
##ounted
##21
##abe
harper
cair
pla
cb
raid
##oku
wondering
crus
twins
paulo
nancy
parade
sinc
##uro
wan
##iable
radi
facebook
inches
autonomous
##stown
molecular
##icon
thinks
##irk
encyclopedia
##eters
sandy
beam
fitted
jeremy
puzz
decides
mansion
wash
brands
filipino
brack
bore
ing
montgom
gathering
decorated
polar
kra
locally
##ereign
##opa
wise
nashville
sovereign
sailing
bj
disestablishments
milw
mario
folded
unexp
montgomery
pursue
##anning
paying
roth
grandson
surrender
swimmers
grande
##gov
spotted
##elin
##auer
hughes
psychiat
widow
cycling
intercept
patent
semifinals
reorgan
##ffield
##minster
outbreak
implemented
rider
##eneg
rings
lub
fulf
governors
natal
fossil
hips
negotiations
fortune
scream
adjust
claud
##bus
##ppe
betray
mathematic
zane
miguel
chad
generals
tube
##world
resignation
comprehensive
temples
bm
##eni
sheep
sou
survival
##omo
##ieth
sailed
arrive
##agi
##ommun
guitars
syr
syrian
verse
distribut
milwaukee
spots
##pear
##rection
apoll
updated
columbus
tasman
supplement
shipping
earthquake
annex
tested
furniture
libraries
pour
fright
unt
emir
shanghai
##eling
acres
spy
##unc
##esa
amazon
compiled
bruns
ace
gastropod
##emon
reveals
interrupted
framework
absolutely
mumb
##iour
1851
citations
vest
sudan
gott
campaigns
otto
bats
servant
mam
##esco
reserves
##var
##unda
1849
##alg
##bod
##acles
inspiration
libert
procedure
thumb
eugene
chip
attendance
##wald
toured
suitable
##ints
usage
philanthrop
##anned
shakespear
##lass
aub
106
symptoms
##aeus
intermediate
endors
tram
bases
fastest
melod
hamburg
describing
stein
tibet
##ersed
jennifer
marathon
unexpected
##sis
robot
simultaneously
answers
rhodes
palmer
episcopal
sized
104
##usk
##isons
believes
client
offs
clergy
closure
lope
unsuccessful
housed
##mun
##unted
hallway
rhode
##atched
pupp
##insky
fourteen
dealing
bennett
1840
newton
##26
entrepreneur
advocate
hass
trin
bigger
initiated
interpretation
##orig
mathematical
##inum
ruler
##acc
##abi
microsoft
instantly
kee
harsh
franz
##pat
handball
focuses
preliminary
##ifier
pilots
innovation
geoff
crying
debuts
atmosphere
ig
dominant
lobby
vital
hitting
shops
##most
tract
##irm
confident
toler
exclusively
##iry
riley
heavyweight
identical
crosses
##pert
presby
cuban
sufficient
##wing
dos
##iolet
ahmed
overwhel
twent
dict
prague
##gon
grid
##uman
sheffield
manual
notting
flights
ud
founders
suppose
submitted
trim
marx
relegated
militia
giov
##mn
##uh
1853
diverse
achievements
flames
societies
petition
civic
presidency
mosque
##rys
dwell
clarke
schm
surnames
influences
flick
retrieved
visits
treaties
printing
promoting
intellectual
clerk
##furt
eru
marin
screamed
kad
congregation
##rs
marble
internationally
chiefs
config
1847
warfare
##arians
departed
novelist
loves
grades
priests
unions
##eri
##quin
jos
produces
exposure
jesse
morph
##chewan
bust
##ensen
unfortunately
lighting
refere
southeastern
stefan
wiz
##inda
excited
##ogne
brunswick
novelists
wrist
eyed
aboard
saskatchewan
hindi
##ords
package
recreation
editorial
##vet
buses
helicopter
mouse
##bir
gmina
balls
nico
skill
contributing
midfielder
essex
##riet
reminded
##eca
##cott
graphic
abdul
ranges
oxygen
reviewed
##quet
caroline
felix
twist
collapse
posts
belongs
manuscript
##beat
warned
103
garage
diesel
heath
prepare
##tor
breeding
creatures
antiqu
artwork
dischar
##found
louise
garrison
scotia
plates
locomotive
##cz
claude
delayed
##acion
arabia
fen
rhe
chrom
karen
whist
##isi
lithuan
abilities
britt
recurring
firing
panama
dominican
alpine
##ecr
defender
comments
keyboard
dale
##rage
resumed
julie
##atics
rebels
travelled
fraud
improvement
manufactured
respective
basil
structural
nursing
ranging
psychological
princeton
defended
gy
gerald
drake
referring
annoy
##agers
punishment
##avan
impression
chore
temperatures
designation
crist
fundamental
inducted
tornado
##rod
108
ion
##ecca
restricted
lords
uncon
moss
ronald
##27
tatt
doorway
yugoslavia
lopez
##zig
shocked
crashed
fairly
##star
obsc
byzantine
mg
lenn
##isy
##cos
midfielders
1846
plaza
oblig
blin
involves
skel
desperate
trium
holl
recognised
devoted
aborig
##oux
veterans
commentary
explosion
flank
palestine
dow
hybrid
peas
##ław
climb
theology
interstate
logic
##gent
adr
checked
ci
##ocene
##ourt
dylan
##agonist
krish
beetles
accessible
columns
oc
boun
walks
infer
belle
associations
veteran
stretched
insisted
##nip
wals
saving
redes
dish
cuts
indicating
swept
engr
demands
readers
burials
stockholm
une
playstation
bankrupt
regret
mainstream
error
removal
santiago
neo
payment
##estershire
gospel
temporarily
mv
dialogue
##hand
##heart
mete
uganda
bik
yan
examination
swallowed
oral
vocalist
diversity
chocol
ras
retreat
mt
somerset
administrator
nottingham
##aku
interc
inhib
valle
autobi
breathe
reds
shelter
##vas
mum
indianapolis
##lessly
tens
rookie
phosph
##bin
misc
shen
subc
corresponding
relevant
customs
exhibited
bb
drif
##lag
afl
vietn
solutions
vulnerable
bitter
isle
##boat
mutual
drain
chron
ratings
##enter
proteins
signals
whenever
##oslov
oakland
ellis
##adier
##alus
vietnamese
airfield
##ulations
exile
commanding
eligible
inherited
originated
##roe
cheer
bearing
##sburg
##front
##roid
murmured
essays
jamaica
hale
wilder
yelled
specialized
theories
##omorph
deer
##active
##uter
##28
vow
rage
succession
piet
##page
reward
engagement
brooks
##ija
fet
upr
conflicts
##obile
hawk
breaks
prices
mcg
##eled
courage
fond
suite
##atra
syndrome
aires
##uta
pianist
##cripts
durham
rim
polo
cats
deputies
dissolved
##uto
phrase
109
closest
reconstruction
swear
interchange
##usa
gand
commod
paras
belf
installation
pointing
cro
increases
extend
disorder
declaration
##eb
freight
johannes
##ieu
##du
waved
rede
ultr
presentation
voyage
liu
monte
attacking
premiers
everywhere
absolute
chilean
strand
brings
107
classroom
##person
dong
gan
targets
elabor
failing
olivia
##olly
explanation
##lla
dropping
conventional
excellence
proceedings
travels
##bank
perth
iso
employee
murders
buenos
preserve
albanian
##asters
spac
focusing
inhab
motorcycle
##ourg
methodist
dependent
regardless
reflected
##atta
collegi
rankings
edu
laughter
fib
arrow
gorge
brass
##35
brah
inver
bitch
cfc
scandal
prey
mainland
##elines
piss
dragons
stopping
zhang
elevated
edmund
rebel
divorce
patric
slide
shaft
##illes
rodriguez
ivy
coin
difficulty
ply
##illon
surprising
canyon
della
rabbi
cafe
nationalist
beaten
samples
##hev
kenneth
hearts
curric
advisor
deemed
divine
149
##ountain
##far
##phis
lithuanian
##icity
##rons
tough
footage
touching
collapsed
sculptures
lots
banking
boards
##andra
chim
##isle
trunk
sensitive
variations
bombard
##olving
herze
##iate
porch
manit
nickname
curve
refugees
##ozen
##ounting
cage
preston
songwriters
##isan
chicken
destination
##ei
czechoslov
highland
colonies
wrestlers
spun
##si
manila
massacre
128
salvador
descendants
experiments
missionary
135
explains
healthcare
demonstrated
electronics
##velt
mcl
restrictions
carries
doug
grammy
quarterback
jeal
##eding
czechoslovak
pleasant
##umberland
instinct
##anted
porter
measured
blame
sussex
##wart
hik
controls
reverse
appeals
impressed
##vers
yester
##ische
quarters
bam
strings
bros
alc
shakespeare
herzegov
argue
shorter
stretch
messages
secrets
personally
interpre
numbered
sofia
centres
bree
##encia
orph
depicted
fires
armor
cyprus
span
##iast
doesnt
bike
shes
stephan
kem
capitol
feud
theatrical
circular
borrow
rushing
900
approaches
115
slavery
gael
allan
contents
##fo
1830
wend
##ifies
eighteen
immun
detect
climbing
##aran
medall
catalog
survivors
attitude
belly
depot
theoret
glory
wednes
trapped
olive
lak
quarterf
roland
iraqi
behaviour
beetle
quint
annie
aids
hungry
stub
frozen
revel
compress
computers
chambers
specialist
bruss
ore
quartet
utt
fluid
##enhagen
chlor
bryan
boulev
##neath
bombing
blur
##omar
spat
gameplay
clo
carved
upgr
fus
layout
southwestern
hank
vand
ease
collaborated
1845
geographic
workshop
##29
vine
graduation
disbanded
binding
palestinian
andrea
pam
lesser
relating
plenty
neighb
##hall
yesterday
##ifice
sophie
kang
hitler
authored
gt
collegiate
brilliant
referend
accred
dorm
##music
eleph
ist
brow
dialect
axis
sits
perf
##borg
##fers
presbyter
eps
lined
poster
mtv
##oj
gel
boom
certificate
reich
##asse
sep
celtic
floors
##ilding
herzegovina
##uba
ez
bailey
permitted
incomp
linda
##fb
ups
jealous
kot
##eme
hd
##isp
wheels
altitude
shak
intensity
##agr
ting
wheat
casualties
roose
northeastern
##thr
dollar
facade
rovers
seminary
vault
##uania
turb
metall
unity
observation
ti
dome
ahmad
##elyn
amphib
##rom
jessica
creator
luxemb
citing
imprisoned
reducing
##eff
tok
graphics
plains
patriarch
skating
lithuania
hadnt
lone
##zhou
tightly
uz
edges
metre
alge
thurs
objective
morocco
1837
bundes
styl
burial
stevens
reader
armenia
nig
announcement
fury
enrolled
##reen
##marks
inject
relieved
frost
signature
archived
estonian
aspect
cannon
mineral
listings
hardware
##imo
variation
chapters
integration
quit
blinked
georgian
banner
highways
##iper
difficulties
eis
1839
denis
tampa
dag
servants
praise
feeding
identification
whats
registration
##ether
wednesday
dining
instruction
davies
hannah
flour
logo
streaming
suspension
reply
fountain
feminist
htm
underneath
##manuel
superintend
directions
demons
threats
orbit
##apur
fake
jab
herb
zimb
glou
hamlet
endanger
brush
tissue
casting
eds
utc
canter
exhibit
fever
mumbai
leslie
##agne
fare
1844
buddh
predecessor
commanders
##atin
fairy
contracts
145
encounter
sculptor
pist
variable
##notes
##fi
rapper
hotels
rational
unp
canoe
rept
##oping
estates
##eh
screaming
discrimination
basement
altar
##icz
##cu
releasing
mythology
##cano
confirm
##ipher
fay
clients
##onso
##inks
fernando
##itus
thursday
##walk
suspect
taxes
emerging
##zon
troy
airline
reop
martine
lessons
bradley
challenged
##ugs
obama
##ports
abolished
##ecies
ferg
anthology
farms
reid
pursuit
governing
sanctuary
fn
boulevard
solomon
distinction
copenhagen
worlds
supplied
fang
mahar
concepts
hil
westminster
enters
##atorial
seized
afc
tossed
chocolate
##ochem
aston
powell
circles
quantum
nominee
phon
spur
roosevelt
##itic
fart
##ystem
visc
giovanni
129
ufc
##boro
indies
magnetic
mercury
generations
wyoming
##abwe
kissing
espn
pleased
##ashire
holmes
landmark
##45
zomb
brussels
##gary
joel
erik
kane
kills
cornwall
oval
lancashire
##quer
meteor
nasa
##ompass
##inth
interaction
provisions
shiver
##anton
comedian
moist
##acco
##ellation
elevator
copa
##mons
lighth
thesis
bloom
likes
vii
zach
127
ruins
hort
dwar
##zing
legit
andrews
graves
##sl
sah
frontier
1841
unanimous
##iche
variants
overlook
scattered
##bird
commenced
gymnast
boxers
jewel
mock
##actions
##oque
shallow
excuse
sailors
aboriginal
abrupt
blu
privile
kumar
evolved
copyr
coached
orland
intervention
##strong
alg
shoved
matrix
##33
mb
ges
jas
auxili
horizont
gly
oriented
spokes
zimbabwe
pastor
discontinued
paralympics
efficiency
evan
mysterious
monkey
fatal
essentially
##ishi
fbi
amid
eleg
bicy
tanz
aa
guilt
encompass
butterfly
awk
pilgr
##py
interim
accum
archer
malaysian
wig
##ensional
##enger
amanda
istan
ritual
consequences
keeps
1843
##48
extensively
undergraduate
colleagues
predict
surely
heter
topic
hopes
lynn
sham
chop
developments
civilians
punch
aerial
enorm
indo
heal
ferdin
brandon
aggregate
dang
mascul
celebrate
sas
receives
istanbul
cyclists
brows
citizenship
rubbed
malta
kob
handling
slammed
##otto
timeline
sustainable
147
quinn
nintend
##child
receiver
torpedo
documented
sustained
1838
reforms
guang
nikol
tributary
warn
investigate
emphasis
realm
##avia
1812
migration
##orous
addressed
triumph
##xi
wont
pounds
neighboring
experts
saxophone
stark
healthy
phenomen
148
speedway
digit
##atem
memphis
slam
operators
##idal
marian
distinctive
blocked
constantly
liam
marshal
invitation
consumption
##colm
violet
nintendo
twitter
clif
##opol
##chan
facts
reformed
sd
awkward
uc
devast
interactive
lah
prosper
performers
1842
ned
rope
##rh
cultures
ccff
testament
diplomat
characteristic
suburbs
##orum
rape
noting
radiation
spectrum
beta
batter
hypothes
navig
programmes
ccffcc
listened
dud
lecturer
preparing
frown
evident
##atha
meter
chains
reel
grate
malcolm
repeatedly
instructions
rounded
##inery
stranger
delight
baj
struggling
meal
ludwig
##arez
marco
namely
householder
administered
screenplay
reconna
professionals
mane
ecl
eccles
philosopher
para
alley
tribal
lyon
lecture
117
grain
statements
##appr
cooking
melody
holes
euro
zam
carm
automatically
swamp
lesb
cuis
input
properly
extending
arrives
unr
##iman
trevor
abund
improvements
beau
ellen
1832
jumping
1835
prototype
##olin
impressive
wolves
anders
mammals
nate
permanently
bride
assume
epit
goalkeeper
reconnaissance
inscription
mere
cruel
##boys
cyn
dare
gp
manifest
apprent
ole
reactions
multipl
exploration
nowhere
manitoba
emil
aest
cherry
##eur
swung
##aneous
##pin
clouds
destro
disl
marl
henderson
localities
hul
commitment
collar
1836
grants
mia
consistent
chelsea
republicans
explicit
##irus
##loe
occasional
galaxy
##hd
subspecies
verd
curtis
138
carriage
lectures
slept
tactical
cancel
grac
convince
clinic
sexy
belgrade
rosa
102
calgary
##atern
diving
glasses
boxer
auction
telegraph
airports
physicians
##ylie
doctorate
customer
##ulsion
##annon
intim
wrestler
floating
cathol
fraser
uncomfort
dash
amber
maintaining
physically
lut
excit
infection
keen
estonia
plum
immort
##esse
##enzie
renewed
##arth
hak
pressing
newfound
##top
posthum
guerr
benedict
##andy
canterbury
portal
armstrong
##unes
##38
terrorist
##tym
conspiracy
conferences
edmont
##ilda
maker
##dering
pag
seas
humanity
##ullah
compact
##inge
supervis
alv
snap
upcoming
##mir
situations
kingston
ich
infin
townships
richardson
blo
brent
##sy
monitoring
glenn
##hra
legends
counted
orlando
copyright
everybody
outf
curious
frankfurt
judgment
##lif
vinyl
cly
##inos
filling
bibl
idol
kilometers
wesley
exterior
yo
chaos
diana
##iii
transformation
retiring
##woman
vale
graz
recruited
##azar
##iane
literacy
butt
platinum
laser
cale
nass
lawsuit
striking
allegations
##ste
##vent
##ør
stored
simpson
accomplish
##ibe
wasn
pulse
dolph
beard
##anti
bowling
engage
aims
symbols
squeezed
mercy
streak
##eville
119
spo
bark
cylinder
##ben
##engths
honored
kenny
albania
connects
superintendent
pupils
##ilo
counts
disg
##ateral
eh
eager
mixture
##andro
ik
edmonton
brushed
consciousness
jenny
helm
etym
typh
gaining
surgeon
absent
jared
bury
##alez
wand
touchdowns
attraction
mh
consultant
booth
conquest
theological
java
efficient
dew
governance
vat
concentrated
protocol
##ados
marion
guidance
##aru
accurate
dragged
victories
cambod
cameras
naturally
kinds
integ
hugo
equally
cinemat
firmly
shane
dund
guided
##rist
batting
##avi
chairs
rubber
##jay
millenn
##irts
##atoes
picks
endangered
hipp
invis
newport
interface
dup
weaken
##ingen
fk
km2
agr
labels
accus
##power
##yo
kurt
hag
khal
executives
separation
fergus
sard
lance
##nut
##ovision
##len
##inas
trailer
jets
spirits
melan
118
zen
##add
bye
notre
##apest
wur
barrel
knockout
##awi
blaz
presenter
frig
podcast
raced
surrey
heels
##heng
residing
riot
volcan
cheese
jal
prostit
mlb
kann
ish
pard
auxiliary
edgar
trustees
##anca
headquar
philosophical
reiss
##enzo
tasks
torture
treasure
picking
##arta
stead
twentieth
sally
##66
perceived
##bol
renowned
clearing
postp
fewer
naming
computing
affiliate
bomber
amounts
prevented
chronicle
##lar
summon
moderate
guatem
dispos
##ieg
pistol
cere
damp
elimination
arbit
drawings
##inia
arsenal
sheets
##amas
curse
allegedly
slovakia
fucking
batman
##ecraft
siblings
cater
nicolas
dancers
performer
predominantly
bradford
boarding
crops
clement
catalogue
strikes
expecting
##irl
nineteenth
##uj
##bone
ferdinand
miner
delegates
loos
melt
mothers
##pted
qing
##onne
holder
questioned
premiership
nacional
magical
ampl
mell
rs
presbyterian
bail
accessed
##ymph
1500
monica
##itudes
##bbbb
loving
fork
##los
mund
hopkins
##ept
imprisonment
synonym
##cor
crop
##lee
associates
protecting
paradise
##amma
portraits
analog
assignment
slovenia
loaded
bhar
vor
shrub
centered
gasped
gonzalez
awa
hunger
zoo
##ophys
##osexual
abbre
##auc
pulls
artif
boxes
ammun
server
relatives
antarctic
marcel
encountered
transformed
corners
explore
straw
stationed
bulld
gov
sliding
compat
imagined
curtain
volt
threatening
pt
gibson
planted
##ugging
buddy
pipe
frog
##hou
designers
joke
tran
tune
celebrity
joshua
portions
tobacco
caes
milton
patch
lump
bastard
dynamic
penetr
maggie
streams
robertson
tues
tah
abstract
rost
armies
lyric
guarant
cuisine
sho
##olan
entries
pend
martha
accommodate
referendum
navigation
beliefs
practically
compounds
crafts
lutheran
napoleon
##gard
specimens
pyram
vall
tuesday
barrier
sta
139
flute
1834
tril
narrowed
aria
ammunition
hann
##emann
137
##onscious
lec
contestants
editing
rifles
cdp
forbid
obst
flowering
##ilian
ari
followers
##list
nationwide
##onn
jungle
committees
bacteria
criteria
quadr
##guard
verb
rash
##books
##lining
hurling
recruit
##natural
pars
griffin
##fu
happiness
kom
kaw
moor
convert
revealing
hms
hoff
##antha
cruise
activated
shrine
flame
broadcasts
##idy
privately
curriculum
educator
##avian
##igious
cardiff
casey
procedures
##oya
extends
stafford
##amy
##zed
manuscripts
och
equation
##occ
nadu
mats
anarch
membr
proxim
prevention
dimensional
icon
bis
garner
indie
codes
mayors
brav
iw
approaching
dul
##oye
##urance
laps
troop
leip
350
faded
fract
##bis
actively
resting
middles
burton
regiments
wart
strengthen
##berger
targeted
##the
rivals
concurr
consens
raven
segments
circulation
mari
accent
catholics
martyr
kok
tackles
hs
##eley
##arin
auditor
submission
paragu
eva
reynolds
lovely
##avier
linn
epid
lightly
trek
nath
authen
intens
theoretical
knox
harvest
jung
legendary
flooding
parishes
finale
ethics
discipline
nah
eurovision
oslo
comprom
testim
gaelic
pile
bypass
shud
##uku
sting
resur
sts
##fol
exhaust
zurich
##criptions
##ocar
minimal
##embr
fcc
withdrawn
suggesting
complicated
ffbbbb
researcher
##ardi
##apa
sacrifice
goodby
shy
thereby
favourite
colours
##pid
topped
oriental
santos
travelling
##flies
116
##aic
yun
##000
lia
severely
ecology
neighbouring
endings
algebra
homet
applic
mechanics
smiles
##uctions
##onna
spine
luxembourg
##hell
rays
zar
##iated
##ivo
wav
pab
bulk
excitement
114
alert
##agram
##pense
rebounds
##season
pled
juven
martinez
deaf
##riages
sixty
##oder
cluster
budapest
wagner
kazakhstan
tet
handled
##uchi
##opy
123
apollo
rehabil
dumb
sometime
acknowledged
displays
sacrament
collecting
flowing
trails
cornell
musc
salem
carlo
altered
bedford
enormous
tenor
##oche
##force
##umbling
wounds
steal
hurry
optical
##overed
yosh
##ienne
spare
hels
sulf
##strom
relaxed
pierce
buc
awake
comprises
potentially
huh
raiders
daddy
delic
advertis
ves
pus
geology
belfast
ink
arctic
brigadier
sunk
stack
##kok
warmth
##estrian
elena
hometown
consent
zool
##aea
encourage
consequently
johns
nobility
observatory
counterpart
outs
merr
weigh
##atsu
suburban
nost
denomin
beds
geneva
##ondo
wei
woke
nato
remn
curling
gustav
rc
burke
hardy
monsters
rebecca
cyclone
146
geographical
contribute
##eria
tucker
113
runway
transm
allmusic
chev
##iden
126
##stadt
mab
michelle
warrant
curled
nh
hiv
##wyn
##kal
amus
ballot
barnes
##pit
decree
argues
halfway
utter
##orious
investigations
abortion
arguing
ally
seoul
fence
mikh
##erver
bless
cyber
##azi
##lies
monroe
enroll
rowing
nascar
comprising
puts
extraord
uttar
koh
##rot
capita
cohen
##holders
greens
algeria
betty
prospect
##ilder
1815
americas
##zyme
petro
prehist
somebody
proceeded
360
##anmar
morrison
divorced
casino
##rec
stability
hatch
richards
mcdonald
revol
124
##untary
##etics
baroque
lens
healing
restore
entity
relegation
eventual
marines
##asian
underwent
alarm
complement
1831
##ocaust
terrorism
##aid
determination
unve
##stead
feminine
##lined
136
semin
believing
owns
bee
1833
##yd
developer
item
tooth
##nic
teenage
emmy
ordin
abandon
uprising
requiring
manages
collector
conducting
doctrine
alumin
satisfied
spite
lineup
pause
examined
cottage
speaks
holdings
enlar
rex
possessed
##regular
accidents
utility
##istent
layers
plac
convey
dubbed
biblical
jerked
perez
dot
yak
invented
foods
tac
edwin
insult
wiped
ashley
repeal
trucks
rend
trinidad
##itious
##adh
observations
albany
evaluation
shorts
geological
rochester
seam
irregular
##kinson
shame
halt
expanding
vend
feared
inland
lied
clara
convoy
primera
yuan
theolog
witnesses
assassination
masculine
brave
elliott
##mail
limestone
interactions
lid
theodore
holocaust
coch
arbitr
wyn
reads
jub
treasury
consecr
boris
creates
titan
##ht
rejo
aberde
trips
shade
144
equality
ethiopia
practition
findings
agu
prompted
viola
triangle
handsome
##erts
carroll
culmin
refr
brighton
myanmar
##ilion
brien
volcano
colombian
##piece
surve
investors
##adors
descript
drinks
##onica
extraordinary
luk
lancaster
windsor
##sten
glow
privacy
screenwriter
lever
nina
rene
rainfall
rosen
vector
blew
improving
##imer
##ede
oliv
koch
secular
##oze
pamp
katherine
nationally
dramat
plymouth
julius
maiden
costume
diary
tightened
enlisted
chant
##hawk
walt
permit
horizon
colt
madag
panels
fragment
##run
ix
nou
hm
##acular
elector
bags
romanized
yankees
concerto
calvin
##iae
##idt
##uru
pronounced
practiced
archaeology
##recht
audiences
miranda
leipzig
dys
chill
introduce
independently
##orders
instructor
andr
##riates
fathers
##asan
atp
1820
invisible
##ouch
analyst
bohem
silva
constantin
tate
embar
kara
draws
nobel
easter
ambul
dorothy
enabled
##iffe
unem
compensation
##hey
##ов
viii
nicknamed
array
discovers
terrain
vick
millions
plateau
precip
gravity
springfield
shi
inhabited
modest
heather
brom
metab
fights
##dan
flashed
134
paralympic
kell
kisses
pursued
traged
absorbed
unh
winnip
eyebrows
##otting
toil
peg
cay
chrys
seventeen
cran
hydrogen
marg
##hart
landmarks
alphabet
##iqu
backward
hint
georges
hurried
nationals
assured
doz
hesitated
##nar
##alm
bea
madh
seated
atlas
cameroon
headquartered
##atories
##mare
accounting
lifting
xavier
tomas
##illance
biographical
louisville
trumpet
shepher
fbb
bolivia
nipp
classics
telecommun
uruguay
lebanese
pix
reef
attractive
playwright
inquiry
##thouse
algorithm
##inski
yar
##chel
##jev
magnus
circus
aka
vacant
mk
quarterfinals
removing
offense
polyt
veloc
wreck
firms
mw
pepper
dign
tense
reconc
##iens
ignore
wow
sack
drops
winnipeg
##immer
trend
brock
reserved
kul
duration
chef
ley
expatriates
blink
poured
minne
halls
ussr
dex
crawford
##orne
translator
curved
purse
tourists
bangkok
##iza
maya
surveillance
marking
cure
imposed
destroyer
##anner
meh
ordained
spreading
rectang
chir
marina
deriv
gian
chate
automobile
savage
2024
##ifax
##otr
propaganda
requirement
ate
moreover
##urated
etymology
ct
presum
##amine
sake
1825
rak
aleks
wilderness
cared
eaten
sind
consensus
sanche
dayton
currency
hayes
##ivar
darling
hosting
berry
biz
confederation
directing
freshman
councillors
jill
conven
newfoundland
##esis
prair
deals
revolt
blanket
harmony
nitr
zones
bce
deadly
nerve
##elong
thames
scratch
##zel
goodbye
sip
grateful
##shine
##vae
wishes
janet
unemploy
1828
tide
growled
phant
lal
elis
advised
assembled
enhanced
equity
unoff
##ashtra
carne
priority
mentions
hex
bunch
rested
cros
transmit
stam
raja
sopr
upstairs
proven
flet
reunion
lomb
##quez
1814
sanchez
willie
battalions
lease
enzyme
sue
yok
alexandria
custody
macdonald
ucl
authorized
onwards
##rina
webb
lace
hunters
exh
heinrich
guitarists
councils
temp
sf
##hend
hawks
crim
widened
kylie
oy
protagonist
winston
finalist
gujar
atlet
gra
cement
transpar
disabled
compass
randy
##ylum
staged
varieties
educators
##ieri
##des
souls
##iks
edit
candy
##olith
kai
herman
chu
transported
joins
peaceful
gavin
nk
amusement
isnt
councillor
kop
footnotes
muk
porn
lawn
##eves
redesign
##igi
##aders
clenched
##hurst
lug
sensation
washed
rox
ernst
##lette
overhead
dishes
##esses
cassie
personalities
drives
lifestyle
##gang
atomic
wagon
vegetation
##cestershire
farther
kyr
laf
provisional
##nels
sucked
plantation
##ogl
protective
cello
111
halifax
theorem
##oline
accomplished
rica
breathed
sketch
silently
ulster
rainbow
ruf
uncomfortable
boeing
accidentally
deposits
hp
repeat
##core
forec
backs
illumin
rack
falcon
bassist
harass
precious
powder
lynch
macedonia
polyn
##epers
adoption
rises
reflection
yuk
nab
casc
##uer
##appa
soprano
ket
outcome
##36
##umble
bard
mature
scouts
bombs
##anor
smoking
munster
bruno
observer
inclusion
naples
elbow
fusion
measuring
empress
granite
disorders
##sole
bankruptcy
coordinator
boost
missionaries
carson
pregnancy
amar
descended
enable
enterprises
companions
rolls
##urd
roller
goss
##dc
rhine
bengali
varied
blonde
apartments
fertil
thermal
merced
packed
referee
stepping
ding
##ocer
anto
bash
ridicul
pomer
scales
dimensions
disgu
feast
crowned
chloe
deceased
yi
alto
madagascar
prestigious
arcade
##aching
bonds
rw
garrett
joey
foundations
lesbian
hierarch
##pless
°c
tasmania
rican
courty
paw
##cul
##hp
dimension
pes
acquire
elderly
nm
##ammy
involve
molly
hok
skyl
##gled
1775
charleston
environments
upgraded
handful
treasurer
metaph
cubs
condemned
##atum
desired
buying
bits
jorge
sunshine
strategies
brady
luxury
aggressive
minds
mobil
##ikes
antib
searched
lust
faction
crook
cruiser
postal
taxi
rafael
mba
strain
minneapolis
catching
subfamily
urged
##arre
whitney
coral
##fight
chatt
tracking
renovation
##ght
schem
decrease
substance
##asis
travis
chuckled
chor
##enko
flown
slope
portfol
disrupt
##jiang
tackle
delegation
mikhail
1829
glacier
##linary
disk
1826
sophia
##bery
virtually
##ophers
fees
kern
gloss
##sted
##ographies
kod
750
monks
##alon
depends
skip
maple
meyer
##arium
cis
janeiro
badm
cleaning
diploma
ancestry
##key
promotional
eden
synag
fierce
exhausted
cia
concord
##rag
consequence
loans
##chair
routine
subtr
wolver
lungs
mog
cataly
##icester
##aton
saxon
flies
##alp
patricia
maori
solely
##wind
fears
ef
summers
proposals
ner
particles
##uine
1824
##aceous
##hips
telugu
fossils
stained
##ancement
bavaria
rabbit
ratt
mint
html
arched
seemingly
sabha
##37
nicole
loun
badminton
itv
amp
millennium
##igs
ain
browns
##bn
phenomenon
spray
roberto
maxwell
johnston
blanc
pollution
bould
tickets
##nn
vu
trainer
bombers
evangelical
unified
ugly
hern
dimin
lighthouse
workshops
filmmaker
afterward
##iol
blair
swords
crap
majesty
unconscious
mcm
economist
withdrawal
translations
nsw
adolf
##elect
shu
burr
theyre
jackie
wwe
mandatory
lonely
forbes
dense
potter
alexandra
tactics
dell
crest
demanding
exempt
##hammed
miracle
nj
##ician
expelled
maharashtra
scorer
moses
panthers
panc
dhar
carpenter
ibm
lum
piz
admission
dante
flipped
syll
duches
mama
learns
shark
merchants
greene
rulers
zu
reptiles
pf
##elsen
correl
frustration
pdf
yemen
nonet
disagre
##chron
##enegro
bundesliga
claus
melissa
tribun
larvae
##elly
##stock
avoided
kosovo
syrac
hc
montenegro
institutional
helena
magistr
lately
sharply
cheap
overwhelming
gram
portsmouth
1821
parked
myr
stabil
consolidated
notion
remarkable
##optera
consideration
realizing
neighborhoods
##ifa
overcome
mohammad
batteries
nud
cowboys
barre
doubled
configuration
##atham
explorer
disappointed
transfers
abruptly
norton
horm
stap
consul
sequences
dealt
solve
duk
websites
karnat
1801
##appy
1810
##aris
loyalty
##market
tore
clust
tanzania
clip
rotation
katie
barracks
warehouse
1813
summar
gifts
analyt
bicycle
galleries
conjunction
gaming
##uca
marched
nonetheless
bian
specimen
wickets
##lic
strait
gesture
sene
groaned
zion
glam
##leigh
planes
lc
gazette
maintains
peruv
##ono
eugen
ambassadors
##pi
depicting
newman
##34
cunning
lighter
##enary
rivalry
jing
noel
proportion
cairo
intelligent
vcard
pud
prussian
developers
cake
duchy
painful
angela
whites
arche
orchestr
##say
##idays
dread
ruby
interviewed
vicinity
settling
qatar
##onduct
negro
synthesis
##arag
##99
magnitude
penny
cic
criticised
console
urge
bells
leicester
hog
humid
tips
occurring
assassin
dull
tribune
openly
witt
##pc
arguments
operas
##itative
pie
spinning
wrap
fletcher
nit
lur
syracuse
enjoying
pok
celest
papua
sway
abby
xv
##apor
lasting
fragments
fuj
greet
backup
decent
surfaces
##asium
##ophon
shifting
dynamics
define
1818
##ennes
alec
cheng
tad
recreational
##raf
appreciate
simul
##enheim
horizontal
freak
interpreted
karnataka
varying
estimates
mug
demo
commissioners
sg
112
witnessed
publish
traced
timothy
gerard
koz
##bil
##estrial
##ipur
broadcaster
geometry
sunlight
poorly
rescued
providence
homeland
receptor
##oire
opposing
chances
reck
destroying
submarines
ignoring
vl
volcanic
dried
continent
fug
gum
##antes
acclaim
suffolk
griffith
fiji
##iciently
tuber
sounding
##shore
cups
checking
##ilee
walsh
challenger
barber
supporter
##sson
##erner
##ceph
posit
##urai
innovative
homosexual
controlling
ripped
acre
mistress
sacramento
steering
responsibilities
##anges
basel
inaugurated
##amba
quoted
bw
leopold
wax
legally
capabilities
##harmon
illustrations
25th
horrible
duff
mesa
taj
weakness
integral
##idan
sage
discussions
##lord
##etz
gag
devot
rhin
cologne
elaborate
averaged
bleeding
##yside
caves
##grave
scots
##inki
##athi
necessarily
promising
flags
rt
mathematician
supervision
philippe
imagination
unlik
##ogo
guad
kv
##steps
specified
monet
##appers
##ilis
latvia
jeffrey
agreements
isabella
wicked
cir
highlights
hermann
baldwin
cognitive
diagnosis
vish
##atter
harp
trusted
embed
explaining
tara
##uder
valentine
safely
breeze
wards
sworn
buddhism
##arms
##millan
rd
##aceut
##ku
cedar
vaugh
abolition
anxiety
carpet
rector
miy
##iffer
demonstration
clare
##ahu
liner
kau
challenging
kinder
conviction
atletico
matching
alder
##held
##osystem
generate
dab
holden
atop
baden
##uran
regulatory
##cock
yas
leh
fuller
consc
##osition
secretly
huff
teammate
sutton
cres
clem
##dorf
closet
acceptance
1822
##iade
dozens
probability
##enza
societ
forew
armored
storyline
poles
dodgers
premises
vander
tart
mirr
francesco
welcom
pilgrim
loch
debr
grind
venezuelan
aberdeen
hew
mons
fernandez
predicted
##etto
##isers
payments
dominic
princes
crab
##bh
salon
beats
##ako
wives
maternal
##nai
wisdom
##mith
toxic
investments
neglect
guatemala
##idel
courtyard
kyiv
repairs
unic
mongol
prairie
braves
mastering
##vic
##ellar
heated
bates
panch
governed
sacrific
conrad
shoe
refuses
rows
affection
crucial
dair
choices
motif
surpass
doctoral
wong
ved
##affe
fantastic
proclaimed
senses
exploded
athen
homeless
##oughton
##rea
wireless
interrog
idiot
grat
##anto
plural
voluntary
##lift
##bys
inherit
##rus
insect
spiders
##cats
infected
adequ
churchill
stur
palms
thighs
phillip
##rition
##alan
##urb
geoffrey
gymnastics
hanna
squadrons
##inched
statues
slopes
patriots
tattoo
gentleman
savannah
quarterly
supers
kuwa
##ifiers
hutch
##anks
unlikely
##cin
spike
1827
update
kerry
pavilion
proximity
lauren
rotten
courthouse
tunnels
paramount
##32
distinguish
##tail
este
gus
##ango
homer
responses
veins
institutes
morton
habitats
mechanisms
jah
insane
##istrict
2020s
##ormal
euc
viscount
##owl
##39
##olls
baltic
youve
humanitarian
subway
##icular
dwarf
spa
bolt
incredible
ruin
oath
raph
deutsche
cooperative
investigated
##andi
contestant
ceremonies
agrees
vr
##ws
unclear
autobiography
verlag
##obe
pref
christine
##aceutical
miz
zamb
grief
##atan
orientation
##acio
apoc
berm
saxony
ecclesiast
thomson
gras
huss
##post
beings
detachment
gloria
elephant
1816
dawson
ruined
darker
mn
machinery
##wen
senegal
varies
##pora
manufacture
agnes
##entry
livest
##ativity
neal
##actic
indirect
fiscal
##rium
schl
##ctica
ladder
supernatural
freshwater
mcd
##ilus
intact
avi
carnegie
hector
##inters
armoured
airing
ambr
prehistoric
vernon
inspection
peruvian
lumber
soci
certification
squir
damned
jonas
dio
revived
gymnasium
##but
artifacts
adds
accordance
medalist
decreased
##iso
glared
gains
jenkins
palomar
##onal
separately
xbox
##edo
kunst
wade
lankan
rehe
funk
anonymous
##yu
whoever
renovated
initiatives
##neum
forgot
transactions
vie
oxid
zo
flint
reasonable
##flix
sinking
wizard
##esian
romans
exhibits
spit
osaka
detection
shining
ivory
bess
##smith
accompanying
cecil
depr
lovers
lj
tragedy
stripped
deny
nd
genres
unders
lund
##anas
jed
##iu
shells
freeman
##urities
##lore
ds
miners
regent
uzbek
criminals
hydra
locals
tucked
reson
##nu
jace
skiing
germ
nl
pharmac
cyclist
planets
eleanor
woodland
crush
##had
avoiding
sidney
leis
rendered
##hao
unpr
citation
politically
disability
claw
krishna
footsteps
sik
ingred
chun
magnet
##andr
##emia
slot
swallow
pied
##zan
##plane
1823
considers
plas
graduates
1819
fiba
conceived
escal
highlighted
jacksonville
velocity
pissed
worcester
##zes
##agic
slaughter
##uga
tracy
klein
proport
malayalam
soup
sponsor
unveiled
##rob
##erable
midd
mighty
muller
appropri
##ologically
1806
everyday
awful
##hett
##endra
##oso
rue
£1
traces
phyll
tristan
mccar
downs
technological
santo
falc
watts
pablo
werew
cigarette
chapman
slim
roses
specifications
calder
dubai
darwin
##alties
mercedes
##amon
##lean
explored
flagship
kras
estimate
charm
wikip
dove
##itters
forgive
introducing
jerome
aristocr
ips
kah
sponsorship
mang
tug
monter
organizing
##upp
##yi
##itas
governmental
correspondence
slowed
herr
rao
skate
bombardment
thresh
cracked
catalina
gin
upright
dana
jules
assert
##agonal
burden
ler
##entric
missiles
zak
##oqu
mohammed
irrig
serp
favorable
ucla
discussing
##lay
respected
measurement
##oding
bulls
instructed
##dia
gregor
##atro
vacation
boyd
##alla
uci
contrary
##getown
peaks
ribbon
clue
advancing
disgust
##uras
haj
clyde
diaz
revision
scrub
lisbon
cors
therm
consulting
butterflies
##ordination
##auss
midlands
##arte
deliberately
##afa
needing
advocacy
depicts
##iformes
netflix
levi
preventing
jiang
sharon
allocated
gad
postponed
dixon
crimson
##through
kamp
flut
nickel
curios
salary
amalg
inventor
##ulous
pottery
furious
ked
fortun
pension
shuttle
subdivision
##pack
testimony
laying
southampton
##oped
chak
preval
sheikh
paths
disturb
subm
##into
cob
strongest
solic
kilometres
##fred
##leen
helmet
dams
inex
##aram
floyd
visitor
jointly
sunset
europa
gage
strictly
sitcom
flee
1817
canvas
emin
als
##enas
##ск
nurses
suspicious
##roft
##usive
desperately
namib
zip
##ogical
airborne
castro
##rics
induced
sherman
##lia
attribut
prussia
##storm
unofficial
pomp
sach
abbrevi
percy
skirt
laurence
##hran
decorations
considerably
##azed
philharmon
spacecraft
eyebrow
amalgam
mortal
asylum
chass
teenager
##orth
##dioc
bant
humanities
complaints
vag
##osi
ultra
salmon
##yna
mandate
1803
madame
za
framed
tradem
pillow
sends
dess
risks
destiny
coleman
##cliffe
##igraph
nightmare
dias
##houses
cret
ecosystem
malt
antarctica
gorgeous
##inging
##ailing
morm
##iatus
pharmaceutical
crews
perception
ridiculous
archdioc
alma
bounded
elm
folklore
caleb
protesters
theatres
sailor
##55
##inh
daisy
contrad
madonna
##esti
prohibited
unde
phyl
alberto
wc
resolved
trafficking
forbidden
swimmer
gardner
##idian
slender
##ships
shepherd
tian
physicist
genesis
1809
mickey
fitness
sociology
exclaim
sterling
lys
##atu
themed
calculated
prophe
nos
smelled
prints
intimate
doming
insist
##tenham
##isse
josef
##sing
##jin
##eches
arose
foul
##itches
deterior
psy
mentor
##lair
petrole
mush
drown
##odynam
diagnosed
ancestors
brenn
nes
roma
contacts
blessed
dres
dion
hammond
##brand
odds
viewing
lightweight
accol
pater
mollus
portfolio
retrosp
##irical
comprised
##geon
awaken
reverend
consumed
humph
verses
ava
ferguson
juda
kut
bulldogs
##assic
locks
formats
underlying
##try
embrace
zagre
neill
ambulance
emirates
1758
dens
##idea
prosecution
##opus
wah
leigh
transgen
##otta
anthem
snar
##qual
nay
sings
sphere
##heric
surrendered
horns
##esia
hypothesis
auburn
contempl
##ellers
propriet
shrew
textile
gale
ende
sentiment
suck
sniff
pretend
dental
##bage
eli
silly
kicking
lima
categor
sealed
keeper
corrupt
##rahim
##vian
mcn
softball
saga
matched
lill
storey
exploring
##will
##maker
conform
synopsis
interf
pose
wikipedia
##ни
quot
##itating
counting
lunar
rehabilitation
pang
##otti
##aden
hazard
photographers
magnific
settings
honestly
##ithe
lacked
bullets
carmen
remarked
stalin
##phe
shannon
toled
philosophers
duchess
hampton
eun
clad
clause
irrit
gripped
membrane
chateau
toys
decoration
##oki
ourselves
stutt
hostile
lantern
hos
delegate
qualifier
helsinki
flooded
crane
suggestion
voltage
grabbing
charitable
startled
cease
sunny
youll
delicate
crust
stole
satisfaction
crater
curves
telecommunications
##ledon
presenting
smallest
hij
sper
sectors
allison
mered
governorate
orphan
contracted
##dor
##hausen
mackenzie
cambodia
##enues
mitch
italia
bulletin
deployment
deciding
czechoslovakia
terrace
authentic
##bern
opinions
rectangular
lent
##elles
##ayed
##eke
maurit
subordin
highlands
parach
##cover
1808
##rice
davidson
dissolution
accepting
controversies
sikh
vicar
toes
trilogy
flip
##kie
##gage
chronicles
mish
##otypes
redevelop
##onen
monarchs
audition
##beck
rigid
zagreb
groc
##yc
pom
##anus
sect
undertaken
verte
tunisia
countess
weld
ecological
##onte
croc
torres
superher
nave
siber
piper
vanished
spelling
shirley
consumers
twelf
disputes
genuine
fres
neighbors
ribs
castles
guarantee
cute
coloured
makers
lanes
##nian
prosecutor
civilization
ecclesiastical
guidelines
email
##amoto
acclaimed
##gren
##enstein
##yst
petroleum
frustrated
twelfth
nixon
aviv
omaha
shapes
##fold
assuming
reopened
devils
partition
pyramid
benz
mits
genius
##amar
shire
stunned
##ng
meredith
puff
disputed
donna
andreas
joyce
prizes
nails
reinforced
##alli
##ymes
burma
pue
raids
particle
freely
##group
sandstone
detention
tempt
likewise
1798
##omal
##loo
twe
lateral
fruits
skilled
##ainted
endorsed
marker
cobb
universiade
critically
bs
##ischen
##ommission
mistaken
##esy
android
amen
blades
taiwanese
choosing
bolton
pageant
tromb
falk
stumbled
reliable
imported
entities
ricky
superc
mau
##imar
##akov
##46
chennai
clayton
froze
##aniel
nordic
gos
wartime
1790
bored
rca
1794
breakthrough
##iuse
echoed
battlefield
nicol
belarusian
dances
##alu
geneal
##isive
stint
##pling
complications
remin
pounding
emissions
correspondent
##arity
dioces
##imon
georgetown
errors
promises
mord
##utta
alright
invas
badge
apostolic
bro
pony
burnt
kingdoms
sharks
ecole
singular
##iani
ibrahim
refuse
frames
placement
superman
##enny
botanical
##nis
collier
shank
turbo
accuracy
leisure
stain
linnaeus
##rock
bing
mccl
barg
asteroid
reviewer
##bro
##church
loudly
1807
##hardt
thy
ballad
midland
snail
underwater
conservatory
kolk
resolve
jagu
rous
##phone
caut
eleventh
lago
1811
mvp
noun
starter
protector
campeon
dealer
certifications
estr
1805
smugg
dissert
savings
recommendations
ses
##kind
incor
struggles
detected
noon
inev
##imeter
performs
iris
##dled
##engers
algerian
gim
facilitate
sansk
archdiocese
sob
waterfall
bombay
haul
congr
whip
drift
branded
tko
##yen
ely
##ucci
punct
sto
leone
theft
toyota
clarinet
tilted
##eti
countryside
##pro
static
##birds
parted
demonstrate
ostr
##rap
pizza
poker
##hydr
immune
450
dm
isabel
ae
factories
##abul
##onda
unsuccessfully
sicily
rats
inscriptions
reservation
organize
giuse
seating
dump
objectives
handic
natalie
vaccine
gentlemen
hire
webster
220
augustus
embarked
jessie
immigrant
advocated
##bard
sanction
angles
holt
toledo
##eze
interference
nw
##atz
hau
finest
##emi
achieving
riots
cumberland
hassan
##omez
concentrate
resided
sooner
##nings
wen
invaded
##odon
communists
kry
##bourg
genoc
salam
disappointment
fists
welcomed
pneum
usc
peterson
yah
longtime
##aby
kc
thread
1793
doyle
stuttgart
spelled
precise
clarence
unesco
fitzger
lambert
aerosp
revers
grandd
careers
collaborative
eternal
##uni
benson
3000
chern
##dar
zel
integrity
deserve
mou
isn
irre
laurent
sanskrit
staircase
downstairs
##ounters
fungi
tc
pioneers
##unting
sanders
angola
##jani
bryant
donations
##erick
fundra
##bes
quarry
commands
##andan
remembering
investigating
schmidt
contempor
##tera
hof
brett
accommodation
willow
licence
##iliation
commercially
1804
complained
cylind
vatican
##ariat
heating
constantinople
##alling
##eka
narrator
ligue
kne
preceding
##isely
successive
madras
encounters
acute
livestock
middlesex
lengths
carb
##foot
drifted
rudolf
dive
screenwriters
hick
obtaining
bergen
stance
monarchy
##chus
auditorium
linux
ellie
reflecting
mae
abbot
##pta
##ongs
gown
infect
buckingham
obit
dd
manning
nair
##estan
tud
noct
##ogether
carriers
viral
##47
wink
##attering
lacking
enclosed
wheelchair
nt
threshold
decorative
brooke
##uver
outlets
subt
##elo
juvenile
coordinates
invention
zoe
##tures
synchron
screening
positioned
##cements
beatles
gwen
exchanged
emeritus
exeter
mih
##alled
adjusted
haunted
##ritic
wishing
dairy
kashmir
polytechn
shawn
lup
sof
narrowly
projected
clever
modeling
kens
sleeve
##shot
erin
broncos
conced
astronomy
glowing
hyder
##athlon
theaters
jol
bonn
##keepers
ghosts
wimb
##aul
intrig
reper
remnants
rita
##uana
fitzgerald
provider
wald
bluff
gull
velvet
##umen
collision
expectations
##ollen
eman
tallest
herm
gravel
survivor
shap
stephanie
plaster
restrict
campeonato
religions
td
##aja
caled
supposedly
blocking
nutrition
jax
coven
presumably
availability
##ahi
##akk
mhz
css
valve
##wara
villain
##shan
emigrated
bred
ankle
protested
posthumously
##cence
gomez
goose
empower
1796
isolation
##izations
stip
symmet
landown
gasp
cheshire
reporters
racism
valued
##atas
batted
urs
##hele
linguistic
cursed
sizes
consistently
hert
continuously
cain
##xx
hyde
johan
jockey
advances
altogether
canber
gibral
typhoon
violation
1802
lv
##ombo
terrified
communicate
lorenzo
##amming
statute
##hof
##anson
fischer
rockets
transgender
freeway
professionally
##heed
fritz
##iona
penc
discipl
bax
digging
requests
sheer
cops
hartford
petty
laurel
commentator
pockets
tire
cyt
pirate
##ande
seeks
##print
riverside
surgical
##wana
mets
##ст
##ilingual
gibraltar
expressway
uniforms
vass
giuseppe
##nick
rubbing
etern
nods
##lude
tess
norwich
handbook
peripher
suspicion
kidnapped
kub
slovenian
sinclair
##ра
rn
semifinal
rehears
ranger
crushed
vars
##abling
lesson
##ogenic
##ouched
tubes
##onshire
pga
lindsay
##abh
byr
oph
eliminate
##iker
towel
crad
exercises
##landers
stealing
bubble
gop
shuff
antoine
##than
valencia
gastropods
peers
blown
wak
click
andhra
carey
blamed
1795
plaque
canceled
capability
cac
schw
subtle
infinite
##icating
##arya
lineage
judaism
##kow
##endon
1789
##ulates
metac
##hot
invested
##iciary
finite
drainage
##ylon
watershed
##zburg
##atur
gros
conson
##ipse
krak
venus
##jor
comparative
proceeds
adviser
canberra
blacks
medallists
dz
niz
depictions
frightened
piv
torch
unm
buddha
hastings
debris
endeav
##odz
molecules
##ovsk
gd
meadow
vera
conversations
mare
babies
libya
decommission
timing
##ser
activism
hitch
jh
ashes
cove
perpet
owing
aless
sweep
juice
preceded
winters
embarrassed
trembling
##rique
segunda
paraguay
circa
limbs
bays
elliot
curiosity
troubles
##ryn
fow
henn
substr
explosive
glancing
bolog
matthews
dagger
gob
icelandic
trash
phantom
penalties
terrestrial
marty
minerals
incomplete
ort
encouraging
physi
##ibald
albion
##ographed
suffrage
bryn
imaging
osc
latvian
mural
nim
rapids
##stit
eros
1792
penguin
phones
tibetan
##jord
aerospace
yacht
bacon
overtime
demolition
dap
##iban
opted
forestry
complaint
##atore
carnival
antwer
macedonian
upward
methyl
peac
speeds
tribunal
cull
hernandez
ethiopian
flem
abbas
##rish
##hm
chaired
organisms
##avers
confer
arabian
lucia
iber
hawaiian
shooters
kidney
zhu
realizes
##arrow
rides
variables
haiti
beef
llc
wimbledon
aden
beaches
mccarthy
##oge
loading
elisabeth
worthy
occupy
##thood
##fried
intentions
raphael
rpm
anybody
yong
partnered
newark
helpless
schemes
##kl
asset
##gling
outline
marginal
caesar
crowded
tehran
##iseries
irving
trauma
knocking
differential
chips
##ogene
spher
arlington
assumption
##amped
transmitter
##oise
illustrator
wad
marching
seventy
bbff
viz
##eded
rowers
nerves
nz
##izers
curator
shelf
patterson
prose
agenda
dix
biod
refusing
##xy
jacobs
divide
bbffbb
anthropology
##heads
aided
1880s
sided
##ostic
outfit
shay
##horn
##imi
sams
armour
tapped
##erville
##esi
destroyers
vacu
miniseries
expense
holidays
gb
##odont
coordination
##uting
filter
##ipel
shields
cw
mash
viking
toby
newer
comparable
##osaurus
kav
modes
scandin
1799
oversee
diamonds
engaging
##86
winchester
mentally
##elic
offshore
woo
talented
kuwait
##aise
skiers
##db
teddy
##abr
undergo
##ibal
tina
claws
cbc
##vant
phillies
##alom
insign
hugged
##bat
##inch
gateway
systematic
brutal
porto
nicarag
moroccan
enlarged
titans
##yg
stats
devi
tavern
ravens
precisely
emmanuel
holders
documentation
corporations
smok
bordered
##club
##sha
saddle
scarlet
##75
exciting
##enches
##mb
exceptional
prohibition
kolkata
default
##space
##eco
terminated
##rosse
surroundings
memoirs
celebrations
##ologic
templ
addresses
vijay
obey
anatomy
ald
catches
kerr
tray
refugee
##jun
brat
laughs
venet
applying
rans
mour
##bons
jade
dodge
sentences
##ups
haired
##olling
tailed
thur
unst
abn
binary
willis
##ardy
angelo
gis
##tc
accolades
container
##jon
dudley
bella
pastoral
wicket
magdal
striker
embedded
##aji
##lamation
pays
barrett
organs
coy
aly
equations
wanderers
extant
colleague
enacted
constable
scramb
reagan
suited
fails
emi
mound
##arat
photographic
##armed
##abl
enthusi
##bold
##atti
honda
pasc
shooter
reunited
informal
inequ
##elius
kak
metabol
ashe
lacrosse
cv
wheeler
samantha
ramon
conting
##ophyll
##acia
insight
ginger
dresden
##mor
primitive
jum
breakdown
securing
capturing
lineback
cough
aph
mitt
ump
remake
limp
##iw
deity
leased
mohamed
prominence
##building
fisheries
ella
dunn
predators
segreg
##prof
simulation
bees
advancement
brewery
camden
vikings
macc
screens
##stop
lus
burm
directory
##otechn
providers
##eer
depths
endless
faithful
##ulture
tomatoes
expenses
sophom
gujarat
unch
momentum
121
##gee
swir
profits
omar
owl
##garten
ronnie
baghd
##aternity
diane
regina
##ulin
controller
suits
amelia
stamps
rup
##tw
podium
teresa
schne
rouge
overnight
balc
aure
distracted
telep
astronaut
##jee
grasp
##31
##urned
reflects
immortal
consortium
stella
levy
xen
hatred
moy
inning
congressman
unse
ping
anticipated
pau
rp
corr
synagogue
##ophob
ideology
50th
##44
coupled
titular
dressing
screened
damon
gior
generating
agn
scholarly
naw
guru
bliss
knuck
##bria
byron
disabilities
rely
##olar
couldn
dundee
ais
caution
ks
complexity
##agara
pter
multip
boul
lea
guides
info
122
judy
arbor
chassis
atlant
accredited
smir
questioning
##adian
nationality
##onomic
beaver
bump
##abulary
popped
genocide
carlton
dissertation
bean
sculptors
qb
combining
##achy
valleys
newcom
plague
##arf
##rest
##hne
answering
puzzle
atmospheric
wage
carmel
##tes
basically
generic
240
antwerp
sophist
spectators
fitting
spill
dolphins
##oco
sofa
deserved
securities
schwar
##gel
conquered
pueb
excessive
directorate
guardians
module
##ioned
spoon
oppress
cultivation
stretching
philharmonic
employer
##isal
##mud
appealed
unaware
rumors
pearson
cope
drank
tasked
lau
##ße
duet
##inald
coronation
##qi
adri
linking
##kk
louder
huang
gambling
lapt
judith
##base
##opters
skept
bottles
acet
impair
drained
aesthetic
intimid
hectares
varsity
fas
benny
##electric
##iversity
monetary
shattered
wien
alk
cald
measurements
##zyn
conservatives
sensed
mongolia
adoles
enz
slavic
latt
wein
parody
drill
redesignated
##unders
surprisingly
elb
bip
cowboy
inventory
##mented
cory
kost
megan
buchan
viktor
needle
##eaux
lb
menu
wn
##athetic
alps
##gg
##oran
maneuver
tended
confess
cadet
feathers
incorrect
bran
cey
##ippers
lenin
weig
shoots
composite
stoke
emm
##hole
mao
marketed
##itha
corpus
dialects
landscapes
##eyer
##adin
intensive
snakes
analys
pee
charted
##comes
corpse
toe
##yar
chew
##las
irene
decay
##adia
financing
shab
##rent
##ril
##ifolia
buchar
##ascular
danced
reminisc
terminology
rahman
evolutionary
seasonal
anticipation
barton
builder
##elihood
poul
logistics
robe
hellen
develops
jog
descendant
contributor
vint
##oupe
##olithic
sonic
mice
neu
glare
phylogen
1797
##mc
pike
rajas
whale
installations
technically
ryder
enrollment
clube
##aland
beverly
het
cron
loaned
##now
pens
polymer
##bred
kurdish
visa
surreal
##word
songwriting
whistle
##ska
##lis
gyp
adher
tugged
##ibus
basque
constituent
##0e
trades
sandwich
vom
precision
##islav
##ipei
tricks
moan
shortened
leap
##eit
reversed
##igm
papal
weber
##akis
pagan
##asaki
repealed
practitioners
dalton
##escope
##aird
wi
bols
contacted
affiliation
legitimate
##88
discharge
nrhp
1890s
rna
dorsal
marriages
beloved
abdullah
##arius
versa
##oton
antis
groan
barker
reyes
shirts
edith
macmillan
mapping
whispers
hyderabad
bucharest
broader
expressions
hansen
squeeze
randolph
saves
1600
chromos
##osity
##ushi
sexually
prophet
vince
consecrated
dmit
verde
pras
anast
wears
automot
##shi
multim
retreated
##oub
examine
disco
similarities
homest
villagers
lemon
hazel
##like
reprinted
##byshire
backwards
taipei
randall
stems
cameo
combine
dans
gat
premium
vfl
regained
mister
stagger
bahrain
identifying
astronomical
abbreviated
smash
sok
aquatic
alignment
##ulative
##arra
##anu
incarn
revelation
weakened
gandhi
jesuit
##vey
virtue
showc
sq
gould
reluctant
sans
irr
##elet
##rem
elong
##baum
helicopters
elegant
nue
platt
whisk
telescope
reluctantly
ia
lucien
tiff
hoy
daniels
bihar
dl
hare
operative
void
damages
falcons
autonomy
gloucester
fiber
launching
donovan
pleaded
##jud
remarks
pipeline
vegetables
duel
bfb
royals
abel
tus
peered
postseason
sediment
##quis
gide
affecting
mcgr
kannada
##urus
surveys
pronoun
enabling
horace
logical
##fordshire
phases
captains
wolfgang
##horse
throws
sis
switching
##kson
automotive
advocates
professors
lounge
##alk
derbyshire
sketches
##inkled
enhance
metals
expertise
parameters
jubilee
ghanaian
kimber
essence
aurora
sten
constituted
supervisor
precipitation
jamaican
archipel
comedians
cao
polbot
##zt
slate
punches
##forms
1776
eased
##iffs
tetr
rath
##stones
pratt
mercer
##omena
preference
pg
spiral
fancy
coventry
trends
genome
digest
##itsu
plasma
christina
##mington
portable
daylight
blackburn
comeback
narc
chow
##heimer
gc
williamson
bermuda
##ulia
pursuing
##pring
##aires
reproduction
shine
##derland
blowing
cnn
evelyn
nir
spells
descriptions
scenic
niece
finishes
##inqu
##akala
alison
dedication
##emberg
fuk
nuts
zombie
paler
galway
##mod
marcos
cooling
romeo
clash
##hop
ngu
soy
elvis
##itational
##lements
transc
zap
sued
preparations
hairs
banker
tipped
##lane
gore
marse
illusion
cousins
bucks
gree
augusta
steele
luna
pv
jewelry
##istle
pitchers
herc
destinations
granddaughter
suv
##ometer
hymn
excluded
masses
higgins
seeded
conventions
modifications
crom
celebrities
cunningham
##lace
plug
##uddin
volks
hover
irrigation
compuls
mega
aaa
pity
30th
tamb
merry
laboratories
lans
arous
hissed
##hampton
##otypic
nationalism
nons
darren
instances
greeted
midway
limitations
nineteen
##istically
weston
cane
storms
eclipse
troubled
##hea
skaters
correctly
feb
burmese
profound
dupl
upgrade
babe
perkins
bronx
persuaded
subtrop
robbie
##thor
avant
buttons
smack
##umann
##uber
robust
mobility
##court
shear
airways
tributaries
##rov
nora
trailed
sandra
tau
##children
##araj
excer
wrec
fis
loses
loot
##arton
realised
disqual
obituary
envel
24th
qualities
interd
happily
##amous
##unciation
##okee
straightened
balcony
hallow
biochem
sci
adjo
trademark
1791
honduras
semic
summoned
christie
patriot
adaptations
eyel
steadily
##ende
fingert
##hawks
tensions
envelope
##iston
##enov
extract
##angu
differently
calcutta
##sbury
borrowed
bologna
warwick
impacts
##stage
marquis
chung
sophomore
weekday
umbre
##advant
kart
pianists
##ersion
conquer
coug
##ilde
ave
commissions
mayo
eighteenth
nielsen
salis
breach
enlight
tant
loosely
bhut
chartered
oman
##grove
scan
incons
progressed
gog
hanover
inflamm
hbo
nil
motorway
catalan
erie
##rep
ricardo
22nd
renewable
##owo
shouting
##fest
publicity
celebrating
visions
##77
sovereignty
##chaft
vacuum
bram
patriotic
albeit
messenger
explicitly
avery
gunn
muff
##uria
passer
yanked
energ
berth
effectiveness
stag
succeeding
useless
paz
werner
cone
sweetheart
divisional
suther
##stroke
scenario
disadvant
insuff
ventures
hain
cannab
madness
boring
pbs
reapp
upp
##esome
crescent
hess
##bear
##dington
##sb
terra
russians
motivated
braun
incorporating
turks
seab
alike
turtle
fulfill
knot
ruff
##grass
charming
kins
chemicals
##ellan
moonlight
bonnie
##gence
insert
spor
##aren
folks
pathway
##gil
choke
##xide
acids
jug
shotgun
##osaurs
##elage
xin
puppet
brotherhood
francisc
displaced
hanc
##ieves
##itone
undertook
chau
competitor
shiva
driveway
emerson
seym
##ml
schu
patience
##iasm
justices
slapped
chasing
precurs
##fil
##200
toilet
##uity
exposition
xia
clips
boulder
violations
bally
##ands
robb
##100
##iidae
##95
inception
flatt
210
dover
skeleton
hash
##izable
astronomer
mozamb
observe
##acker
regulated
corv
##bas
myers
haus
subdistrict
inact
colts
accordingly
doom
caring
##yss
eighty
walton
synthetic
clas
##wright
esper
solidarity
##icides
wherever
##icism
disasters
mozart
##sein
amended
disbel
subtropical
##hus
amino
namibia
nih
tutor
distress
ceremonial
wendy
##wi
recommendation
##antan
derives
balloon
abbott
##arc
perpetr
inmates
bum
##otherapy
transmitted
##adic
submit
unemployment
ori
##iances
sergio
anxious
nigel
hierarchy
1780
tobago
jup
sparks
optional
yel
antio
medi
joa
mai
##anteed
23rd
halted
arrows
uruguayan
adel
vigil
pasha
simmons
teamed
una
guaranteed
emble
palat
aligned
##acao
smithson
feedback
saturn
jakarta
caliph
1700
gazed
dimit
antig
regener
##lifting
grun
excavations
regency
##aline
leuc
howe
bothered
parsons
pseudonym
archipelago
230
hawkins
##azzo
passport
assam
philanthropist
paired
##65
dynamo
euph
##bag
tendency
vy
compromise
hardcore
turin
floods
ought
genetics
flanders
organizational
treating
licked
forens
privy
constantine
##ods
sutherland
talents
daytime
nell
aliens
firearms
blunt
bowed
outcomes
##ciation
nazis
disappearance
natives
crowds
clifford
##heid
commodore
loth
nonprof
sock
vista
defines
gideon
##arina
##jana
alam
heel
hiking
##ichte
utilized
publishes
bloss
socio
tl
ub
##pered
guessed
##uded
confession
##empl
accusations
drought
employers
roar
regards
anita
##eee
myc
incredibly
abe
mayer
sexuality
##combe
detached
rer
rhet
##ghal
rented
adren
cellular
distances
serpent
thirds
quantity
compart
micha
homestead
audi
balanced
##ozo
##umont
##with
favored
speculation
gubern
appreciation
sop
grig
fixtures
radius
meadows
skys
snorted
recruiting
brittany
livingston
pools
angus
adequate
unnamed
clusters
linguistics
taller
insurg
robbery
mec
##due
cherokee
wildcats
retaining
5000
advantages
##etus
waterloo
exclaimed
wages
thal
mistakes
weiss
inheritance
symbolic
kass
aging
rivera
chemist
nassau
##ecting
##zzo
shipped
implications
javier
homepage
##mu
baghdad
##arded
conception
foolish
kov
empl
cerv
dhaka
metacritic
worm
lorrain
##plant
assyr
##mere
##dock
##85
embry
bracket
jerk
hiatus
##adan
apology
feld
##aurus
malik
strips
compatible
chis
##iary
zhou
stubborn
capped
thief
luft
tres
tally
gloves
teachings
oaks
scrapped
playwrights
##jer
132
pamph
paved
excerpt
##soon
convinc
sensit
ache
##ogram
venom
christchurch
designing
biodiversity
shrie
chil
flemish
##ungen
##isie
cong
ensuring
botanist
expend
preparatory
sympathy
addressing
monasteries
parkway
dorset
brod
berkshire
stays
slipping
nightclub
translators
lengthy
##lich
eul
##oos
packers
yearly
erotic
##icol
moldova
greenland
gilles
payne
tubercul
peaking
tumor
cesar
arrog
nikolai
trench
##itta
##iltr
amn
##stral
meyr
##ometric
sylvia
chong
specialty
columnist
lass
dominion
throb
acceptable
carlisle
##ayev
##illas
heavier
##aye
mls
evacuated
fals
submer
##witz
teammates
flynn
beir
amor
screams
shipyard
twil
functioning
hopefully
donation
maw
##alypt
mormon
##pres
traits
sj
rae
satellites
resides
tops
spectacular
hobart
##idia
##makers
##enb
##itsch
additions
papa
fff
vocational
uncertainty
arb
##rak
fascist
sek
seymour
tends
ingredients
append
polytechnic
basilica
adul
##lance
##cho
salisbury
compliance
##yang
##ectives
stuffed
strangers
##aldo
lafay
##copic
scorp
termed
##uala
vog
purely
resemble
##herty
scanned
venge
archie
betrayed
naomi
outsk
##lide
vc
bucc
domains
practicing
133
ancestor
tunes
computational
gubernatorial
omn
champagne
nasty
bez
spatial
ceylon
licensing
rall
therap
somalia
verdict
mph
##odus
poz
billed
multiplayer
wester
undis
tanner
traders
captive
##ulla
azerbaijani
##asted
teasing
##utz
samoa
garnered
dose
rotter
##uo
capitals
##yards
okin
paula
lafayette
imagery
jacqu
##orah
murderer
annoyed
pitching
tortured
##ocyt
shifts
developmental
##abar
memorials
tes
participant
hk
ramb
judiciary
##cely
transaction
db
magnificent
charging
pinned
casa
rogue
##conn
mumbled
rai
ego
pert
aeronaut
starr
icc
##49
originating
cycles
indy
mascot
##itty
kant
sanctions
vod
##odies
lymph
##alach
silv
costumes
applies
upt
detained
specially
cloak
charities
1783
##shaw
aragon
mafia
coul
##ijuana
irv
appreciated
##dh
ferrari
sb
igor
monaco
supervised
bowls
pah
##zew
tik
alfonso
grinning
teaches
determining
##rise
fleming
farewell
punched
labr
suk
lizard
excluding
ambitious
bres
peasant
bots
continuation
defeats
prolong
strick
substantially
##atr
orchestral
coss
hered
prolific
lich
portrayal
peculi
##agus
scrap
##illion
gou
medley
trustee
outskirts
swinging
manch
salvation
leah
presenters
##ologue
mathematicians
frederic
innocence
##ucked
##awan
sonata
enthusiasm
kand
suspects
##icultural
fry
capp
yoga
oceania
exotic
attributes
##ogues
discoveries
psychiatric
catholicism
delivering
naj
##even
commemorate
evacuation
##ogie
suffix
ranc
##burger
##acies
residency
sneak
crem
haleakala
lotus
tracked
wurtt
hmm
entom
fiance
##copy
assignments
isles
polls
claudia
deposit
ged
##afe
##ecute
abundant
diz
partisan
regain
midwest
partnerships
exceptions
sey
greenwich
peasants
frankie
##oel
##atisf
krakow
indef
stevenson
##jas
collectors
conceptual
neoc
1788
disposal
brend
##org
matric
infiltr
##kers
shog
appointments
watches
ducks
socialism
demonstrations
##yla
lethal
kyoto
owed
meyrick
fangs
pipes
barth
lexington
pioneering
attorneys
emphasized
seaw
##hee
yen
automated
bn
incent
possibilities
sensor
escapes
lowe
banc
fraction
brigades
dismant
ornith
##orian
rama
finalists
pyth
mortality
arches
prayers
wyatt
chandler
kus
##sal
tuck
rental
compliment
butcher
trout
gloucestershire
veronica
vowel
conflu
ust
gestured
weaver
freel
teenagers
librarian
reflex
pett
chaplain
garde
vein
karachi
brewer
metallic
##onga
confined
cretaceous
normandy
havent
whir
##ongh
cody
algorithms
specification
preview
blend
hancock
refres
##ulic
oversaw
stephens
electorate
witches
annexed
nach
maus
sadness
reformation
hague
##thia
jude
bp
polling
potent
uncommon
pots
##aret
##isen
islander
treatments
##lig
afro
pupil
lein
miniature
augustine
winged
conclus
kes
motto
rituals
interfer
hubert
hesit
dramas
hasan
cush
shiny
delicious
orchid
resol
unmar
assessed
dahl
showcase
##flow
bowie
twilight
cavern
labeled
##ipes
facial
##raz
##alay
triggered
sauce
sharma
elders
alexis
wurttemberg
confisc
dude
##usions
lime
##ounded
ineff
float
baha
ethical
drowned
reilly
##quit
playground
flexible
discl
bias
stunt
outlet
lepid
sidewalk
paolo
censorship
chamberlain
rodney
paternal
jp
##oit
##coe
##haven
contractor
lorraine
defining
scow
steelers
##isans
realistic
transcription
mali
oss
catalonia
amused
reperto
hue
##avirus
##vik
marvin
emergence
bugs
roh
##iad
bangal
triangular
scary
stroked
tilt
addiction
experiencing
##quel
foy
meantime
detain
##odor
neon
shack
razor
scoot
olivier
caucus
wille
brac
goat
urg
voter
tand
clown
lagos
xii
strained
damien
sands
##athed
mixt
reloc
vanessa
bt
awesome
harriet
notorious
##intosh
apologize
##arse
wilts
nish
plaint
dei
emerge
cultiv
tonnes
leak
elias
limb
##ilyn
bmw
dealers
hostage
locate
##ibi
bisc
disturbed
lincolnshire
##ontinental
nathaniel
accompany
ars
persecution
##rez
decisive
aidan
ads
bray
##acs
smithsonian
nonprofit
coward
lara
rotterdam
dexter
jans
exagger
amphibians
soils
juliet
lahore
gaut
trailing
usl
eliza
ios
matth
asym
tulsa
airplane
hurting
##park
thoroughly
##oshima
regg
##rose
dus
##olome
umbrella
eduardo
endow
proto
hurricanes
artem
##esque
verbal
induct
agon
fortified
unsp
carrie
gluc
##alid
toul
naut
owens
##arios
disciplines
1787
##umar
dic
amos
##osphere
terti
schneider
histories
overlooking
fiona
slick
nolan
paperback
pretending
confrontation
liquor
anterior
surveyed
yer
quin
##otus
attained
##ptions
compassion
slower
injection
heats
swiftly
displacement
positively
skyscr
##gos
xu
sophisticated
brag
facto
woody
nodding
##anka
resembles
racer
vintage
zambia
yus
whim
convict
##vy
targeting
caste
##ayana
comparing
gaza
tiles
simone
hedge
magistrate
gund
tones
plung
judo
piers
overth
announcing
strode
1900s
motiv
hoch
investigator
mushroom
ordn
recovering
melanie
uran
##frey
expired
andres
defenses
reli
131
camping
##pleas
kag
outlaw
broadly
bulb
##yre
bangladeshi
cultivated
superf
greeks
unpre
dragging
distract
fencing
kindergarten
meals
speeches
perspectives
rhythmic
alej
minded
sevens
##lew
lening
ditch
killers
sorts
confronted
fors
confirmation
retrospective
ashton
folding
##aste
repet
a1
centr
##icles
apprentice
##aci
biden
chord
differs
sheridan
tires
talbot
prat
overhe
periodical
disappr
##iste
examining
cleaned
##zman
panther
conway
gifted
##uti
unusually
coffin
buk
##leased
gong
posterior
spanning
nys
##itism
becker
leningrad
equil
angr
##cal
purchasing
teased
televised
##uben
##hara
forts
resume
barriers
mccart
niss
erupted
daemon
resistant
ayr
residences
lawson
unrel
##jet
waving
reginald
hai
##stant
pors
edmond
##drop
indication
kathleen
trol
austro
factions
dramatically
prone
catcher
dwelling
##etal
unsure
monotypic
privat
sticks
spont
selective
weighed
##amps
tertiary
##asting
refriger
heartbeat
academia
ambig
seiz
admiralty
ismail
ballads
##boats
brennan
aisle
repertoire
constellation
urb
brood
##green
##adequ
scare
honorable
assassinated
scrut
staffordshire
hawth
unhappy
stabbed
##opath
##inating
dwight
sights
##hf
decommissioned
constitute
##irmed
daim
dob
1200
jupiter
steward
##fields
migrated
ipswich
cliffs
slab
esther
goa
##otrop
##giving
kall
intend
merge
grocery
gamma
glimp
inferior
duss
passive
enslav
antenna
renault
ordering
replay
scouting
vivid
nail
satan
##plus
scrip
vad
poetic
mortar
quantities
##long
lester
giles
##actory
bloc
diaspora
unnecess
burnett
sonny
readily
psychologist
sacked
rover
nursery
burk
jain
inadequ
neighbourhoods
##pot
generator
aval
hym
##ucn
slap
##ogon
candle
flam
##onson
pest
alcoh
labrador
harlem
taw
tenants
sponsors
seals
coeff
bests
kaiser
locker
glimpse
##stick
##manship
##atches
traum
jennings
itunes
polite
downstream
accepts
ile
escorted
unreleased
picnic
vanderb
##apeut
biting
ench
patted
declaring
birch
##iatric
bangalore
els
borneo
sodium
ieee
robots
weve
prefix
congrat
##rays
##ulo
poc
laptop
apt
escaping
rude
haute
hust
realization
rbi
cartoons
commercials
harley
encoded
##idis
platoon
penal
##law
elf
discovering
qa
herd
bruins
pedestrian
gossip
warming
seine
strikeouts
turt
nominees
dusty
##aras
diab
kidding
berger
behavioral
deserted
##oway
barrow
cassette
debates
prese
subjected
bhag
aiming
shores
##axton
midst
announces
stil
seaf
genoa
beirut
rach
generous
crum
retrieve
frant
ninja
##ahr
##inking
amir
##alle
lept
diplomats
wholly
flaw
sustainability
noir
expressing
##64
respir
repaired
exempl
outright
bertr
incorporate
accomplishments
##metr
rapt
preseason
athe
phrases
tempo
##hany
ignor
dane
##orno
administrators
##iformesfamily
occurrence
wrapping
##iscip
zack
##apo
esk
kip
uzbekistan
specializing
jensen
guam
theyd
axe
urdu
finch
##gles
##aney
peculiar
##parents
650
##worthy
receptors
patrons
1910s
wrists
tz
##uld
universidad
sunderland
orbital
##olla
dreaming
dared
phenomena
##isson
activation
bolshev
##afi
extinction
cannabis
demise
saunders
diabet
compare
##ijah
jong
##uating
##acan
##ooth
##mitt
burlington
choral
tragic
vivian
##icle
laos
nicaragua
ville
panties
aye
vaud
hayden
##onyms
kenyan
##irez
xiii
leonardo
europeans
classrooms
alias
raft
1870s
##inished
rusty
rosem
26th
implies
##approp
parachute
garion
##encers
bans
pharmacy
pork
offspring
##hat
##ioni
competes
reproductive
weir
sympathetic
buchanan
##icy
invite
##ahar
laund
##на
denotes
##enk
patents
##entin
##quest
collectively
keel
freeze
wolfe
sergei
thornton
liberals
exploitation
harassment
financially
protr
climax
owe
##eros
coined
##angi
winding
relied
surgeons
twitch
pact
lava
routledge
vanderbilt
##omagn
backpack
havana
##rae
filmmakers
northumberland
silicon
admired
crystall
jeanne
dru
ada
sweeping
##gia
oj
##67
minorities
##inen
investigators
batch
snails
allegian
freezing
degrad
moaned
deton
cooked
fortifications
trich
orioles
proportional
werewolf
beams
stras
yuri
reinst
spaw
lionel
rajasthan
ordnance
##oids
##asco
brune
dignity
##awl
##prop
##ulton
touches
karate
crisp
shipw
shiv
##agher
hypn
clair
eternity
halloween
dillon
luigi
carac
##ikk
sentin
renewal
arte
apex
nguyen
##df
##ieres
russo
tuberculosis
mcgill
##hening
ceramic
mozambique
seld
##lake
bung
waking
mara
fade
merchand
ensuing
confluence
baba
mona
usher
prisons
##asus
reactor
mckin
whitt
thess
152
reviewing
stereo
##osia
combines
delays
##osta
superhero
treason
splend
lamar
##fax
monop
mariners
fingertips
psychic
colise
lr
mens
despair
limerick
storyt
railroads
garbage
investigative
##guer
##sv
afric
declining
eject
##imal
##ikos
inserted
suzuki
##glomer
tighter
judged
bosnian
melted
upload
##hh
obstr
grape
insufficient
sanctioned
##undy
barbados
rhys
haut
klaus
premise
feng
squares
registry
##ikan
1777
venetian
dukes
restruct
##chem
##apers
unfair
imam
jokes
##arro
survives
apache
wingspan
choked
frequencies
aspir
quir
euros
keller
earthquakes
lena
io
werent
negotiated
brake
continuity
reasoning
wond
cuc
##nica
beginnings
unfinished
##omic
hogan
##ussy
debts
nhs
sioux
raion
vaughan
##identified
scars
aluminum
reorganized
statut
bia
##asmine
cue
substances
marrying
breasts
##insk
asserted
indefin
sigma
shades
cary
whipped
##ayat
underworld
allah
reddish
cardi
hail
submerged
deacon
utterly
##itian
affiliates
rm
secretariat
alain
jumps
declare
ministr
hyster
kirby
wiltshire
processor
##imited
illustration
polished
amendments
greenwood
attitudes
negotiate
remod
goalkeepers
##umbered
mlas
1784
##agonists
nucleus
iter
synthesizer
lom
incon
explores
fringe
necklace
motorsport
mattress
possessions
tractor
pott
protoc
##omial
##89
fowler
swore
cypriot
posting
tapes
incorporates
shrug
mok
ramirez
leinster
strokes
##oller
prostitution
communism
goodman
baku
masks
campuses
141
undefe
adjoining
economists
byrne
##oreg
townsend
cag
##icho
fragile
##vr
27th
wandering
np
##abo
225
chimney
affects
sass
##onge
barack
transferring
sufficiently
vitt
abdom
##onde
##erne
##ibo
##oza
##ukh
listeners
pillars
everett
mansfield
heck
fy
perennial
haf
individually
node
##usz
sparked
aloud
panzer
knob
##iera
enact
##eteries
topp
ammon
vols
paleont
infections
progression
ahl
nitrogen
crosby
rebuild
kendall
teens
wigan
260
johannesburg
prick
deadline
cemeteries
liang
waitress
triv
enables
sideways
blessing
diabetes
warden
shor
sorrow
lacks
styled
convincing
introduces
lax
##bral
schwart
dinosaur
roch
peel
cassidy
posed
fou
macau
##bruck
cancellation
disbelief
enric
swansea
revenues
##pie
labs
undefeated
synod
##headed
rin
outrage
coh
acquiring
143
abr
##ecker
##iked
crashing
announcer
bavarian
hoffman
assim
tsar
##anese
inflation
ancestral
eponymous
barns
cardiac
selfish
tile
205
praising
##ensed
financed
fidel
zimmer
shelby
zhao
turf
projection
clap
1781
hib
kiel
collaborations
damasc
##iton
##ahaw
##gyz
dominance
raff
nicola
stripes
##ulata
rfc
wakefield
prejud
##shit
cud
circuits
marxist
sensors
transparent
chol
electro
hesse
germanic
browne
forear
wich
##inga
investor
##jak
jays
sous
urgent
synth
contamin
baz
khor
neural
panor
discharged
scal
heidel
alvarez
goalscor
azt
##ер
commentators
vain
gabe
saul
280
##thorpe
##hir
solved
musicals
implied
corinth
##igue
##este
cries
subsid
beatrice
frigate
derivative
lilly
norris
stressed
wholes
##isphere
dai
exiled
basal
taxation
270
steals
grandchildren
courtney
##arp
knives
passionate
##ulse
##kill
beans
perimeter
fleeing
archibald
crawled
##ocy
flashing
calcium
sunrise
northampton
colombo
restart
bizarre
##achers
##eric
stirling
nib
corporal
interval
punt
cocon
proposition
jem
resisted
lydia
thi
numbering
##itte
thirteenth
mirrors
uy
pilgrimage
lach
numb
ere
commuter
spokesperson
advers
modification
juniors
cannes
gerry
emblem
pietro
##tham
boiler
arranger
##chet
handing
victorious
##jack
ether
rale
arise
julio
coordinated
##olent
trous
kyrgyz
endurance
sarc
auf
tessa
necessity
##achim
monmouth
erosion
bong
pinn
isabelle
theologian
yep
coordinate
##liner
documentaries
deities
mortgage
baxter
devotion
reduces
dn
iconic
null
prud
dispar
suppressed
bucket
promotions
crossover
inclined
violated
peck
bremen
obliv
harding
##etsu
markings
subscrib
##oum
sober
refusal
priory
curb
##atl
##igny
audrey
##forth
racec
fraternity
arent
flushed
kidnapping
muss
upstream
hermit
inacc
karls
##odi
acquisitions
kits
joao
##ihad
agony
iq
##entions
kud
brandenburg
avengers
faust
darius
##cers
##uil
clive
harb
1782
gable
jasper
occupying
scoop
expeditions
groove
saxophon
beacon
320
bahn
jaime
##adas
statutory
##ulent
tele
pius
cus
musik
elise
grandma
ome
rb
mammal
firefight
1778
islanders
wb
solemn
pengu
clary
nobles
medication
motivation
##bler
farr
rejection
##patrick
##rab
overd
pedag
nervously
##enes
moody
wipe
rotating
loft
extensions
conductors
##ells
coupe
memorable
pending
abdomen
akadem
tasted
leans
m2
baritone
##retion
##elope
pn
compression
testified
phi
olig
meditation
zan
subscription
cind
emerald
edged
flot
bureauc
tyne
productive
##acha
flats
thoroughbred
##path
inscribed
pits
chet
histoire
borne
metric
##iland
spears
mustang
assisting
tablet
statewide
fraz
##evich
rappers
legitim
presently
1774
besie
habits
okinawa
kish
##atile
viewer
2d
begging
weekends
infectious
550
curry
geometric
gesch
osh
bacterial
valerie
observers
conscience
scripts
packaging
sich
##rils
ria
sixteenth
rejoined
qualifications
prak
ballroom
inability
##isciplinary
pis
##aty
##opoul
muscular
chased
tudor
##ulator
a3
ery
sylv
fuz
##imeters
##jing
uv
martins
citadel
drac
therapeut
kitty
##irable
carth
outre
reinforcements
cote
raises
penguins
trombone
polym
appalach
deposited
linebacker
##othed
promptly
twisting
tiffany
##words
##atiya
dac
equestrian
acknowledge
pivot
##igma
burger
hooked
sacks
pug
kis
lumin
nagar
##chool
##wicks
plantations
apparatus
##arthur
nils
##heon
judging
##mac
paradox
waived
acquaint
winger
boliv
solving
boycott
doo
unionist
##asim
tissues
clifton
queer
jenna
abundance
olga
marilyn
##chin
##prints
tup
##illi
anand
turnout
corb
springer
updates
gaul
spokesman
kuala
encompasses
accreditation
shuddered
dimitri
elijah
satisfy
guin
neighbours
schles
strengthened
schwe
unle
grandparents
gom
wta
##qa
##nor
monograph
avon
jang
overwhelmed
mathew
ston
brushing
sammy
onset
tod
nip
zig
bobb
##lio
lowell
bambo
nikola
mgm
gibbs
##ynt
crude
##bee
peerage
jeep
begged
sawyer
hercules
realism
checks
rebuilding
scrib
lough
breeds
mx
sensing
mutations
corrected
turbine
knelt
kemp
ringing
##lop
metam
schooling
forensic
preacher
litter
##ieving
lennon
lifelong
##uffs
theo
domingo
fert
vip
managerial
kendra
##68
doubts
hurts
liability
cube
quinc
##ikon
taliban
networking
entertaining
redevelopment
camel
rupert
doubted
142
coliseum
nets
boone
graff
discourse
##anza
##otam
##izu
##ikov
feeds
hauled
##grin
##emar
ws
bae
presumed
##aille
cara
loire
procession
##riz
nutri
whiskey
solitary
discour
##emaker
ls
##ograd
goddam
australians
kale
##affer
##ophic
medina
neville
responding
habsburg
tremend
riga
defendant
wilmington
##bride
rhod
dissip
##69
shivered
devastated
##enthal
flicked
unexpectedly
stool
niagara
tolerance
dramatists
zah
##zow
##ulam
##itat
vet
tidal
##abel
arrange
hairy
carly
marseille
##wy
percept
28th
##uns
nichol
underway
physiology
pardon
akh
passages
cosmic
##edd
wield
##lot
uber
alternatively
granting
spans
##leod
mys
comply
##comb
pembr
centennial
##opf
##itya
equilib
legislators
takeover
nile
tsun
dispatched
heidelberg
bland
secretaries
inquis
interred
rhy
judoka
exports
patches
ragged
##anova
hereditary
selections
##chenko
deform
##unga
comr
notices
lifts
calmly
transp
tt
brendan
##orp
tha
multimedia
##42
##verse
tyn
1860s
bricks
extraction
soaked
busch
musk
wagons
idi
daven
proving
nis
tearing
hemisphere
yv
rwanda
##kenny
yog
jasmine
clans
flyers
fuji
organist
##see
##icans
darts
damascus
stony
##iar
ramsey
boil
##uxe
attain
dend
schul
oscill
broadcasters
enrique
dartmouth
pouring
pneumonia
shri
brakes
ministries
whereby
##eshire
##icola
successes
tao
denial
kicks
bew
rebr
##omatic
breaths
##ор
laksh
damm
gdp
adorn
##adio
uae
harness
cockpit
crunch
atoms
solv
sega
signaling
luca
rory
processed
candidacy
travers
tipper
fundraising
##obil
##othel
urging
uncovered
nok
ida
zag
flowed
occupies
codex
obso
nana
##asu
veterinary
deborah
antique
attribution
##72
decomp
imprint
airplay
##byc
fries
##sty
dich
##eye
nichols
aik
##ungs
concentrations
##ethyl
observing
abnormal
rf
mait
nominal
gasoline
excavated
granada
volunteered
marguer
fixture
prosperity
##cut
belmont
reside
##omat
workforce
reconstructed
shing
ninety
precursor
nippon
##ecd
remixes
entrants
vengeance
eccentric
reissued
siv
##wu
promotes
offerings
##79
##anov
tosh
bordeaux
##orse
##jevo
demonstrating
discusses
##actyl
punjabi
drawer
morg
engineered
zhong
bourbon
nept
hunts
fashioned
reappear
1785
damaging
##atri
printer
receivers
inclus
definitions
cinder
suzanne
richie
##esville
##omys
yelling
muc
##owitz
##inck
denny
comet
zombies
barang
inevitable
##mant
llan
communal
figur
##ibu
##flower
rainfor
gwyn
1786
killings
litigation
ants
wies
##uller
inequality
irvine
slogan
absurd
aide
tb
rutgers
thorne
deficit
##roads
advertisements
##chief
chit
safer
##brough
recruits
herz
##uters
##asta
trolley
##puts
##adays
##losure
mcdon
##iak
swollen
expeditionary
##etically
pry
similarity
policeman
unwilling
amin
risen
beeth
macr
fourteenth
prestige
workplace
glances
aft
institut
phel
odys
reminiscent
##hrer
dioxide
precinct
averaging
##acaf
##onds
postgraduate
respiratory
incap
suns
dolls
persuade
privileges
##gill
violinist
qualifiers
luz
reggae
hiring
nowadays
pigs
homage
pulp
concacaf
directorial
recapt
syndicated
compulsory
unidentified
##iku
##uve
joc
confessed
crawl
grap
guarded
somali
##ighton
moisture
ernie
receptions
recognizing
jakob
caret
structured
deutsch
obligations
identities
thickness
bundle
theresa
##cus
incoming
cyril
##ischer
skater
concludes
deluxe
recruitment
socially
dah
gala
##esha
aren
grossing
##wickshire
fuselage
##robe
renovations
erich
bunny
brewers
rite
domes
approve
utilizing
gai
raleigh
graf
scanning
1779
molecule
brewing
ellipt
docks
persistent
anz
sheila
dictators
astros
##ayo
eup
conditioning
ethnicity
jamm
##asso
##uling
commandant
wir
gs
##enia
plots
cordoba
mandarin
bowler
cinematography
unlimited
tying
iucn
resorts
accidental
##wear
stray
mace
tusc
1660
kron
audit
canopy
motioned
timor
accumulated
misunder
hesitation
##tarily
##american
britann
dismissal
recorder
casually
melting
yad
grabs
squash
##akar
muz
michele
aluminium
paso
##iq
doris
sensitivity
##mot
privilege
cds
jae
barred
blows
##uko
colorful
excavation
demographic
potato
fantas
solicitor
truman
##ouk
49ers
morphology
kj
heroic
andes
gud
zeit
alejandro
newslet
antiquity
rewr
hamlets
##hyn
wess
referenced
nymph
paced
splitting
surpassed
##was
##ahon
enzymes
sainte
unrelated
##ellus
chargers
armament
chalk
huntington
counterparts
pim
tn
edo
##escu
infrared
blooming
depiction
##orable
##isto
parap
##thal
bahamas
juvent
deed
adverse
##elier
unanimously
lars
subordinate
chestnut
##urgical
rebranded
joaquin
##dong
nazar
royce
mollusk
nett
##etes
##agin
enclos
sire
##atorium
staging
intervals
illuminated
tramp
monumental
konstant
enslaved
cah
##qua
guadal
##wo
##icher
aces
cocked
arter
pumping
amphibious
ariel
biom
clearance
bok
##alie
chatham
spilled
posters
bere
historia
castile
incar
cen
macro
xiv
marino
greco
musee
##nas
indul
pey
##urian
vague
##kaido
singaporean
dusseld
petals
lottery
announce
caucasus
hilton
bounced
lazy
recognizes
vicious
entirety
beethoven
courtesy
epithet
hq
##fell
immunity
crept
krasn
uranium
1763
##ophora
lowland
arabs
wandered
##osus
westph
##uela
outward
growl
allegiance
##aan
baton
complexes
151
sticking
pigeon
lowering
catalyst
intake
pillar
hats
psyched
rendering
nwa
gaw
alexandre
pauline
shelley
combust
kb
bois
plea
nuns
unnecessary
stanton
rink
treatise
encirc
neurosc
norse
nrl
crusade
##anj
nikki
##lywood
alcoholic
creativity
hydraulic
employs
icy
representations
accelerated
peggy
ambush
liaison
lend
##pler
jut
##ossa
knuckles
##aryn
wouldn
aristot
mosaic
resemblance
serena
oversight
scrambled
valer
##keeping
epidemic
hens
drowning
##araja
middleweight
patronage
etienne
separating
breton
c2
wither
presses
commando
whispering
buch
balk
##olini
mald
##iyah
intric
thrill
##brates
##friends
isot
cola
##retto
degener
invasive
bly
rowan
porsche
eure
##listed
tung
glorious
hertfordshire
schwarz
forrest
retains
##ellular
explosives
elle
etat
orchard
nude
sew
dill
turkmen
brace
samurai
planting
chevro
samb
##hound
belize
cumm
sore
##olulu
captained
marguerite
stirred
aggression
migrants
schwartz
gour
gond
tucson
hears
limiting
##etsk
erection
admits
strongh
##inde
petrol
namesake
elbows
turret
markers
guiding
occupational
surin
kathy
royalty
sparhawk
inapprop
##eday
notation
scher
anchored
hicks
##ancies
becky
preserving
identifies
archde
##oots
betrayal
welles
punished
tajik
##vs
##grav
numerical
squads
lucius
##cope
endowment
sucking
obscure
critique
sina
##ии
##amura
briggs
seventeenth
##aston
##andar
korn
##ocl
beaumont
prompting
mating
##umer
allocation
metz
honolulu
travelers
prominently
lakers
unfold
stunning
quincy
##idium
##hai
##eroy
##otechnology
advertisement
##iem
latitude
wildly
inadequate
##esta
teatro
resent
feudal
trey
constraints
##aric
expose
concealed
probe
airs
attested
outlined
petit
botany
flush
homosexuality
willy
honoured
promoter
##fff
fireplace
replica
affordable
archaeologists
slides
prevalent
lola
##lander
##ophil
floated
rodgers
implementing
##outed
toulouse
possesses
##eper
nationale
soo
serbs
lamps
amr
robes
militant
slo
colloqu
bowen
incarcer
domen
kung
##plays
stretches
ghett
grouped
wasted
vega
jurassic
1850s
brink
superst
dipped
brab
racist
oll
banana
graveyard
wrath
##elta
##endorf
satirical
##bright
agh
dissent
cyan
vowels
helpful
sasha
birthplace
gertr
liege
ruther
fresco
donor
rubin
sins
##aun
desmond
##inka
apprentices
shipbuilding
patrols
##maid
reigning
malone
attic
##gone
currents
##itud
purdue
restless
mohan
pushes
maze
yaz
corresponds
stav
##ishment
nadia
landforms
plc
instagram
##ен
merrill
modules
##arine
undergoing
overha
attachment
rails
##vd
oceans
shimmer
tipperary
devastating
concluding
brasile
##lund
mauritius
boc
impat
##edin
parv
##raj
schen
flaming
crystals
inactive
infring
1770
exceeded
centro
antisem
orgasm
##iferous
arv
romanesque
chevrolet
1750
oracle
vacated
hord
bilateral
hep
serr
coke
jian
embraced
elaine
winked
##idas
pts
##lı
diplomacy
racehorse
globally
fulton
wilkinson
equilibrium
chronology
schiz
garland
##ismo
botswana
savoy
##estown
##endale
miscell
##gem
denise
carolyn
permits
##gett
predecessors
engel
lagoon
getty
##hang
amnesty
mccartney
frogs
modeled
lifes
unrest
jealousy
davenport
hing
dresses
reviewers
joachim
##igne
albu
readings
explorers
marquess
bain
balkan
obsolete
ld
mage
##ologie
domest
candles
##agawa
bai
eddy
utrecht
oilers
someday
dumped
twenty20
resurrection
rains
##km
##ianus
issuing
fielding
welter
grizz
statesman
lick
creators
piedmont
##hetics
alban
clashes
##ensk
raped
cerambyc
nyc
rund
##cccc
swind
opener
enlighten
premature
feas
starrs
pulitzer
##alin
morales
bau
bamboo
invalid
##kirk
unstable
##elis
mountainous
##haran
##occup
tombs
disturbing
futsal
earnest
famine
regulate
buccane
##anthus
verg
instrumentation
disguise
faw
29th
displaying
deflect
##mine
wharf
##non
##gaard
clutched
##leys
accurately
constance
bick
wm
miserable
wii
##brian
derry
parc
coher
dire
rok
roared
##ajo
louisa
40th
smol
boyle
pills
##iches
barons
legged
cruisers
bise
closes
lament
willem
100th
canary
tunisian
felipe
mysteries
##ianna
##inho
seren
envision
zinc
##bad
gripping
predator
##57
##rels
mard
motorsports
probable
unlocked
impacted
telenov
mould
##opia
xvi
apartheid
seize
flores
nand
##odrome
ordinance
argu
mughal
slalom
subgen
sulfur
yesh
emile
##ekw
angu
crocod
brightly
##rance
hee
specials
failures
##eous
semester
violently
alba
##boldt
gps
##arts
waltz
laundry
##ometry
inauguration
poisoning
watkins
downward
##fm
##ommitt
##opolis
pseudo
##akan
lenses
shrop
##vester
##aghan
cine
hutchinson
lep
unim
manners
darkened
immense
yaw
brains
##mares
##plan
##garh
josephine
eisenh
##girl
##integr
filing
##hoe
finances
wines
freddie
tx
thanksgiving
contingent
shropshire
covenant
ransom
aks
relate
##owe
propelled
suscept
flavor
ascent
textbook
alicia
feminism
chatter
samar
coronavirus
arrests
radial
husk
fris
youd
joanna
justified
baptiste
procure
cooke
axel
osborne
##ikawa
##ijk
##zzle
creed
##class
barney
lois
pach
caldwell
zheng
weaving
dusseldorf
##sta
##week
humorous
mcgu
parano
ily
dreamed
nope
vicente
interpretations
revue
dough
asph
naturalist
cares
pounded
compil
accounted
sorcer
simulcast
texture
protocols
##iever
graft
loser
pash
dickinson
freaking
kilkenny
neoclass
overthrow
pavement
brenda
humphrey
gret
shortage
speculated
riz
archaeologist
peterborough
drago
isbn
##opo
reflections
##nier
cerambycidae
imped
villains
lyons
##iflor
tj
padres
warwickshire
##arie
##fin
convenient
##ogly
wors
conceded
strath
bentley
fearing
tach
##estation
plag
##inkle
hussein
concurrently
cynthia
forge
maver
##pal
manfred
##cross
saras
mori
teng
##eus
coats
sindh
##ethe
blockade
humming
soviets
330
wee
##kas
shareholders
wetlands
melodies
presided
capitalism
##henko
##omans
##urgy
##opoulos
chairperson
fined
rosario
angrily
anj
alternating
packages
##vre
outreach
chandra
einstein
fading
ying
##vir
interception
exchanges
hydroelectric
humboldt
deportivo
lush
masked
proclamation
potatoes
conferred
henrik
siem
skid
kuz
ropes
##urred
relates
grunted
leaked
brunei
canadians
alz
mechanic
logging
arid
sabot
insignia
atr
maltese
mattered
worms
planetary
reconciliation
cupped
fencers
nodes
pean
emission
packet
mccorm
symmetry
mayoral
primetime
heirs
bilingual
malawi
jewels
intercepted
suppression
ducked
innovations
branding
sumatra
shang
perfection
pencil
blaze
##ithm
choi
intensified
cables
cubic
sark
fran
lana
westward
winced
angie
fifteenth
peek
ecst
gunner
enforce
nonsense
martyrs
brasil
strands
maud
concession
mott
superb
ode
##ignon
kier
##kowski
##wat
infamous
definitive
packing
compartment
behaviors
bending
bullshit
brus
##mia
colling
giro
crooked
ener
forested
viable
atari
tm
anh
slice
##yder
bohemian
##acom
##actor
nause
leopard
##orio
kib
troll
bobs
commenting
examinations
##ır
##87
antony
cyrus
wiley
cascade
sly
wast
ryu
strangely
optimal
beech
raul
hospitality
tangled
holm
giul
##chal
sadly
seller
##note
##43
enthusiastic
dispersed
kiev
##opotam
physicists
onward
##agraph
guerrilla
pueblo
##has
unification
bernie
descending
sundays
##istence
shred
sco
fot
##querque
rewarded
strauss
transplant
golfers
dwellings
##uding
methodology
newscast
napoleonic
##allo
inviting
akin
traction
beasts
##ogenesis
emotionally
saar
praying
tarn
campaigned
zab
vacancy
##ар
kramer
elk
sami
palae
marathi
chie
łodz
spies
turtles
bingham
siding
beneficial
analyses
bureaucr
lyrical
mckay
wichita
obliged
racecourse
recy
sells
instituted
850
persona
161
holstein
ballots
offence
signatures
majors
congest
heinz
prolonged
disciplinary
laureate
##eers
jackets
regimental
blackpool
intersections
metaphor
contempt
##kat
grazing
ambrose
voj
leapt
constructing
##bott
hunted
cfl
guan
spraw
ssr
specialists
##enden
zw
##dell
##avar
parole
obligation
moreno
paddy
oppose
infinity
backgrounds
##avez
temporal
nottinghamshire
reissue
emanuel
viceroy
schult
oswald
pawn
nog
exits
clicked
##oleum
foreigners
zay
shik
bret
mono
lille
laurie
burgess
subdivided
desires
##heny
strengthening
reprise
cooled
eliminating
batsman
reliability
pune
##odo
departing
quiver
gallagher
mccoy
replies
underwear
transitional
humili
kear
##gt
sparrow
fia
nicholson
retro
waterford
31st
##orts
ching
256
pais
ideals
##awak
upwards
heil
propeller
##omac
telem
##enton
##estrians
nowrap
hui
consultation
cess
##leading
incarnation
##ihu
tory
odi
northam
mates
##59
motifs
weed
rumble
manifesto
##hills
ezra
##waters
choreographer
vocabulary
##adu
restriction
pou
swam
dop
##nius
cigarettes
stares
boer
denominations
evergreen
501
bauer
crushing
internally
pomeranian
coastline
canals
stranded
##bet
liberia
retailers
##buch
##evic
v8
##emason
##whe
mourn
antr
benin
captivity
skier
##ugbot
smashed
bunker
mav
qbugbot
mla
lining
myths
troupe
resembling
##zar
mesh
simplified
toni
approximate
disappearing
converts
mutant
farrell
ravi
gers
devised
ours
##ondiss
luftw
zac
launches
flung
colonists
theodor
##fires
embarrassment
1772
informs
zeus
benton
##kr
guyana
reacted
##imus
chiang
steams
##elman
piercing
seap
debated
veil
halle
neglig
ala
warships
curated
quote
##iewicz
lizz
asa
##ifera
prayed
rij
##bahn
minsk
hath
exposing
thump
##alyp
societe
##orns
contests
mornings
packs
eminent
remaster
stables
##sev
screenplays
palermo
utilities
hodg
laguna
consuming
revis
##imov
arrondiss
roz
redskins
hin
convenience
andalus
stocks
unlock
prophecy
screwed
encry
##unde
discs
cocaine
erd
##fig
##ulas
rabb
caledonia
##qui
seism
annot
teles
##alysis
eaton
sooth
annals
quentin
##fulness
aquarium
vagu
yin
##ан
ethel
chh
deeds
motel
camille
provost
aleksandr
tails
syndicate
jewell
hotsp
oxide
zoolog
appet
##jah
siberia
shun
dissem
##41
charlton
reelection
contributors
pinch
##croft
commemorative
amenities
judgement
unite
seniors
kauf
sympath
hatt
toast
eligibility
expo
applicable
intentionally
disappointing
monopoly
weighing
parr
##ollah
##dling
virgil
strasbourg
thieves
flux
ministerial
thou
ridges
cadets
ruiz
kensington
unpreced
laden
sidd
opus
t20
addict
##aval
bett
reno
moose
deliberate
##amel
scorers
flanked
directive
builders
##wang
reminder
phoe
clutch
obstacles
##assa
cindy
eos
snatched
soundtracks
depressed
asi
wires
df
misery
wl
hopeless
##edes
photographed
friction
roe
unprecedented
torre
freelance
sunni
giggled
eisenhower
oldham
baptism
cym
fertile
periodic
nipple
dividing
microbi
tek
reese
propulsion
yid
upside
scha
biographer
exported
stadiums
vegetable
handicap
mantle
##hesis
francesca
dt
itf
discarded
##ilin
##icum
objected
##aldi
affirm
divinity
rocked
merchandise
fior
maure
darted
tramway
##ementioned
grossed
lyce
devote
shankar
notebook
sos
tern
tottenham
afor
drifting
sonia
operatic
everton
hanged
guerrero
dinosaurs
ngo
hose
wrestle
aquatics
relent
stellar
mourning
roofs
pia
sedan
##estro
redempt
romero
##imm
terrorists
laus
206
artemis
defendants
alternatives
merlin
margins
electromagn
cornelius
##eau
leiden
vp
wemb
attracting
bd
reverted
ceramics
wavel
##mand
bohemia
##ovi
##linger
##onies
gow
sars
mosques
omega
marijuana
kinet
quotes
callum
vib
abig
soda
temperate
agreeing
##osium
bushes
lao
shaun
h2
sentinel
clint
madd
##schaft
lef
francaise
verbs
tuft
kats
beers
gallant
nal
##inform
##isman
futures
antenn
tobias
pamela
militants
crete
##ayama
oxfordshire
clutching
stif
economically
freud
saff
productivity
##ол
cartridge
weimar
degradation
hobby
##mos
dripping
communion
concurrent
cet
drummond
##pes
##dings
shia
80s
##oug
kow
sino
hymns
leic
pickup
sims
pept
torah
mutation
##opposed
eliot
assure
donnell
sweater
woll
truss
danube
socks
fungus
booker
cannons
overturned
welterweight
unopposed
slumped
rockef
eust
knots
diagnostic
dinamo
rower
coaster
sarajevo
setup
albuquerque
eph
confidential
##veloped
continually
universite
kf
tehs
##ushu
otago
monastic
##undi
##closed
ornament
olaf
whor
langdon
dau
rhetoric
impulse
hokkaido
1773
luftwaffe
doi
semiconduct
thum
##frame
daytona
unchanged
exclusion
pavel
bisexual
staggered
unav
greenhouse
hubbard
##quil
215
ambient
aero
rift
overr
volta
subsidiaries
neglected
wren
welch
weighted
wills
##upe
exited
snarled
rossi
gid
harr
conclusions
substrate
tid
##link
##gau
awe
##lal
bollywood
onc
pledged
horrified
galicia
openings
distraction
##acons
salzburg
italics
ramos
##udge
cracks
aura
jelly
vangu
organism
chavez
commiss
##ushima
##mani
mous
rodrigo
bantam
rosie
caliber
crouched
##qing
crock
tallinn
rooted
##odynamic
vance
waterfront
motive
qi
##imet
##adar
pedal
gymnasts
imaginary
##schild
corm
##emer
thud
lash
glit
destructive
kett
gail
strap
countless
drunken
tremendous
##rama
considerations
germain
##emouth
airstr
lichen
peripheral
sampling
##ported
##pet
accusing
middleton
prow
unused
transcript
firearm
##unas
cooler
netball
jenks
##orna
academie
##ruz
##quist
combinations
cellar
warnings
##px
volcanoes
tome
licenses
profitable
tink
detr
greeting
##berto
tornadoes
chey
newsletter
##ornis
curtains
nure
meck
undisclosed
forc
upheld
koppen
quran
208
pins
postwar
surveyor
forfe
transparency
ck
##wagen
bourne
forem
neurons
##ondr
antagonist
madhya
lumpur
nocturn
macarthur
##ohama
cinn
lsu
jonah
##orial
ridden
awaiting
##oks
##mania
##alypse
dots
fah
pressures
mf
##eche
supportive
##gregor
##erd
fiddle
leicestershire
hanson
impe
golfer
montene
incub
overly
engined
meridian
restoring
sled
glacial
rockefeller
cornish
##ilated
motorcycles
##herst
##trak
##obar
vigor
ponds
inappropriate
dispatch
dizzy
olympia
repeating
##bath
glove
mclean
hurdles
pretended
alessandro
inlet
##issy
righteous
execute
detainees
##irs
banjo
##ipple
clarity
symposium
##illary
employing
ffcccc
compelled
##achal
nobleman
interfere
##uges
skies
trenton
andersen
mow
baseman
mackay
subgroup
baja
visibility
blackwell
burt
brach
chromosome
hirsch
miriam
aforementioned
ull
portraying
##nagar
obed
gratitude
pops
##making
##omorphic
ال
##ansky
putnam
muddy
lact
moran
crank
bayern
pathways
prolifer
##breaking
energet
tf
##53
kuk
newest
converting
##ews
mongolian
jacqueline
goodness
sergey
pulmon
arbitrary
grenade
seph
soloist
cromwell
broker
##bras
convex
nf
tae
yokohama
morse
remed
snout
unpleas
usd
logs
guangzhou
hiber
biss
##itations
blanche
vos
shet
hulk
sperm
1760
##atio
curls
unload
hoover
chancel
tyrone
induction
##straße
segregation
streamed
cout
coated
##tender
uneven
foley
surplus
giorgio
halluc
mendoza
josie
rasp
noises
accession
scholarships
sheld
crashes
schoon
##uffed
intest
coconut
libertarian
snyder
hindus
defens
##omas
##oides
barcl
wight
torso
importantly
dye
minus
##amination
cinemas
aq
norte
£2
immac
threaten
##hoff
carab
##ophila
##idine
vandal
whal
##pherson
sarcast
pries
gonna
shea
sickness
irwin
##etown
rhein
playable
##colo
fost
deported
maximilian
palatin
grange
eco
shrewsbury
kp
centenary
italians
sai
appealing
##anski
##zhen
drilling
caretaker
##enching
abigail
verge
fresno
##ophyllum
##uven
supr
bwf
inte
yankee
psychoan
robbins
wob
##uning
seng
tensed
parameter
bunk
locking
reciproc
aiden
containers
anarchist
brandy
salle
veto
vilnius
extracted
metamorph
scler
edison
servers
databases
smells
shone
cartoonist
ceph
yach
turbul
copied
##estag
woodlands
tapping
consulate
monitors
kickbox
zee
committing
##jara
##retched
daring
outpost
undercover
skirm
sot
gru
amherst
##chio
distribute
modernist
cutter
barrels
rocking
ashore
subcommitt
shep
translates
odisha
##ersen
chitt
merging
nike
analyzed
ghetto
tenant
foil
farn
nationalists
1768
geo
borg
##bud
buckley
debbie
incorporation
conan
newcomer
focal
alvin
aper
wiping
crossings
espana
psycho
principality
adrenaline
bites
##yat
duct
offences
sleeves
tp
##eres
misty
samsung
##san
headache
reorganization
lockheed
faber
amidst
eile
##phones
##about
deplet
1767
boz
lindsey
fluor
eruption
peacock
##ichen
vald
alterations
franchises
cj
profiles
flotilla
ea
disgr
elephants
snook
connie
275
cinematographer
rockies
composing
ranged
stiffened
castillo
bundestag
##ipa
erit
##arthen
kira
ara
frowning
mastered
posthumous
desktop
palatinate
refined
pronunciation
croix
skinner
coding
embro
bask
congregational
209
wembley
sichuan
mixtape
junk
ej
aba
vener
ashamed
gaston
smear
howell
explode
##zcz
wonders
malac
1761
kris
##acey
relocation
relics
##yeong
##sf
treasures
seahaw
inns
thee
functionality
##mberg
##gorod
contractors
rainy
wizards
parma
##elas
flattened
brim
engraved
bhutan
##icates
##upa
janata
##points
aeg
zem
unfortunate
##opped
suggestions
supper
byrd
demet
nightmares
tash
jaguar
encouragement
mout
commend
landfall
##function
kou
museo
meta
prospects
2025
aching
plank
235
##kien
libyan
enlightenment
fallon
noticing
gunther
futur
ensured
absorption
reservoirs
wex
trembled
ont
ew
jap
vaz
berk
##onc
shove
evaluated
##vili
vanguard
##fle
deleted
drone
frey
stade
poznan
absorb
dictatorship
guth
reeves
fixing
##pole
grounded
meteorological
blankets
customary
yeh
probation
xxx
207
disag
microphone
angular
##eras
mankind
puck
scarborough
derivatives
accessories
shand
persia
##ogens
porcel
dora
evaluate
conject
poole
adopting
##obacter
haley
renee
weightlifting
firstly
centred
torque
##kha
exodus
bios
clung
fein
ambition
##trod
flared
goldsmith
##cot
##asar
algebraic
dolphin
buccaneers
mma
##ensky
enforced
prescribed
jammu
mystic
kt
wrecked
motions
fishermen
linguist
wai
##islava
gaud
mouths
ausp
recol
##renia
pascal
technician
dunedin
obsessed
##apuram
##icious
acquitted
runoff
##pace
##iye
metropolis
healed
krai
thanked
alonso
assyrian
fatigue
mek
jc
##tan
##fan
yon
prasad
comprise
shaky
##iata
lange
plata
adject
billie
lyricist
##cip
##estones
##ahs
stout
##iceps
taekw
relieve
loops
diminished
dort
£5
chooses
adler
circled
scandinavian
stokes
shootout
etr
contributes
popularly
spinal
contradict
babylon
##mart
##orb
worries
##gm
elongated
steph
##hun
hardened
oun
vort
crossroads
foli
ua
stockton
giac
inverte
denying
blooms
curl
##atal
jurist
ffffff
avalanche
##rev
##odied
scroll
aziz
inactivated
algae
##bull
multin
proposes
mirza
##onium
##adores
caud
guinness
1766
substituted
connell
decreasing
forecast
arun
##undo
diagram
weaker
scenarios
fluct
manny
elek
collided
humble
cites
paran
bodyguard
surfaced
##beth
grandpa
abyss
bombings
theologians
scratched
socialists
gradual
fairfax
fiery
bravo
psychedelic
amalgamated
##wari
render
paterson
bahaʼ
bf
khark
wesleyan
neoclassical
fortunately
weights
clues
exhaustion
##nard
doncaster
immigrated
culminated
exter
folds
fda
asher
caress
pledge
gmbh
oddly
gases
##aina
antibiot
lore
selo
dorian
cassandra
traitor
textil
cows
##cio
##onis
armist
interceptions
fairfield
pumps
spani
disturbance
ajax
rosemary
xl
a2
conglomer
dred
##once
kalam
appell
loneos
##encl
elevations
expresses
dissatisf
apocalypse
kappa
biographies
evidently
ottomans
assaulted
assistants
warr
characterised
ao
dae
viad
lingering
eton
##inate
abused
pepp
##umba
grinding
chast
cid
longh
prelude
confuc
tossing
genuin
spends
gaps
##entials
##enga
##jav
dib
choreography
kamen
geograph
pacing
ions
trousers
awakening
pesh
amass
shelters
africans
##women
##adena
philips
subscribers
gypsy
##ozoic
pum
justify
offset
##pha
diner
##mind
wwf
##wings
artery
infants
colonization
liar
draped
quay
glut
obli
##ibles
epist
rutherford
jard
trif
lds
##dog
turnp
distributor
##ın
puzzled
clav
worcestershire
syed
buffer
originates
aac
##inement
shale
farmland
eurasian
diocesan
##lech
carla
##iently
matthias
moul
assurance
sincer
hudders
stamped
cache
##hak
loads
cobra
polly
huddersfield
##ublished
atlantis
emilia
subset
##icht
playhouse
smirk
conclude
inward
mcmahon
biologist
viruses
manipulation
norms
spook
compelling
##awar
skye
andrei
##ppo
squirrel
galerie
luton
##won
lockdown
hailed
ij
spotlight
intending
##human
bij
parana
libretto
tann
203
fertility
benev
humour
magician
indicator
flir
antip
playback
portrays
stroking
charting
glee
rites
cortex
##acial
bism
fren
rotor
##zek
sticky
forged
contemporaries
##erve
harmonica
skinny
headmaster
halo
##dler
nex
##anity
dungeon
condemn
zoom
odor
hary
confiscated
appalachian
arbitration
##owell
vogue
detailing
disciples
rematch
obe
fireworks
resonance
meaningful
definite
smoothly
tracing
metabolism
jai
##igl
kk
courier
palazzo
rother
##emont
##abouts
paj
chaud
jeremiah
daly
novi
bala
pertain
qin
payload
dorn
mounting
##wid
atkinson
fluores
##unks
kindness
katy
asphalt
academies
##oppy
vapor
unpleasant
correlation
regan
##abas
longing
maturity
resembled
abdel
##just
discrete
unint
likelihood
corey
consolidation
hammers
kast
leafs
zhe
##erton
kurd
##uis
builds
rainforest
dand
mcfar
doping
resurrect
vanish
##ovian
landings
archiv
goldberg
psychiatrist
gaa
megal
mein
spok
waiter
ankara
invol
demonstrates
vaguely
pto
hohen
resolutions
therapeutic
171
jia
trader
cecilia
castell
310
f1
sprinter
api
##78
##inians
##author
sensory
marr
proves
##51
collects
kess
xiao
minh
geelong
420
hooker
monkeys
dicks
##ulk
bourn
quaker
godfrey
##ythe
outlook
oste
hisp
spice
marta
samson
##ismatic
##tenstein
calcio
##hay
relinqu
oceanic
michaels
##ussen
programmed
jaws
defences
fins
ached
dominique
myspace
gao
##amiliar
syllable
saur
reminds
uncontr
fanny
##omus
wilde
dirk
lauder
cheval
coca
stratford
chiefly
silhou
unter
arrogant
##ptonshire
blitz
westphalia
canadiens
ponce
denounced
wherein
emilio
vishnu
statutes
sarat
threatens
kamal
supermarket
##proof
##engo
enduring
##bill
bartender
taekwondo
cautiously
wary
##thi
broom
##ongo
##ideo
cheltenham
encourages
anatom
##zin
suicides
presiding
worrying
shouts
olsen
hampson
coma
212
km²
kapoor
nostrils
gangs
fits
destined
365
shelves
earnings
bourge
##mantle
##kovic
tee
lacey
haitian
dominate
subdivisions
oster
heavenly
npr
pets
##angan
occident
exams
prosecutors
vind
aztec
enlist
specialised
lviv
##afta
consume
integer
##moon
moons
inherent
affinity
dispens
##iscus
northamptonshire
cracking
pell
sinister
unmarried
##anum
diaries
unseen
afb
advertised
seahawks
resh
unbel
intu
ness
bravery
enqu
assumes
enjoys
expulsion
##iena
miscellaneous
standardized
rabbis
##wave
##ophe
##asper
rudy
categorized
hott
validity
digitally
##ieder
taun
unpublished
pioneered
chuckle
imports
reassigned
##mie
forewings
ideological
guill
libre
bienn
vows
stormed
spd
##psons
sarawak
wolverhampton
fascinated
rudolph
uniqu
plut
clam
gild
##idon
compton
peach
backyard
murals
##ento
340
##bay
disqualified
##acea
proprietary
##udad
rau
lizzie
ulrich
cabinets
gina
##aroo
slamming
psychologists
##nov
sart
aal
strawberry
daphne
hyun
1800s
wilkes
##his
unfamiliar
mersey
wt
bait
levine
illegit
eduard
##lenburg
litre
##urry
##annel
vhs
ames
lublin
electrons
##ridae
harrow
##fur
##ounding
##endi
##uger
farmhouse
ankles
neb
##ibar
ili
extingu
delighted
scowled
rashid
foremost
beaux
burd
honourable
analytical
faz
stove
suffrag
visually
montenegrin
##anging
kult
grimaced
spines
##ovia
salvatore
desperation
dismantled
##ifiable
natur
steamer
##56
bali
remot
clone
rik
morality
ortiz
shipwrec
hinder
nv
##ijn
##gev
##oby
excurs
reco
ornamental
##zys
uneasy
cade
##gc
##acking
consulted
##endo
johans
genuinely
##vist
90s
##icians
remembr
horton
nostalg
saloon
confronts
usaf
prevents
owls
hench
fife
annoying
##a1
settler
##orsk
flashlight
browser
yiddish
lasts
intellectuals
slater
silesian
gregg
##map
seville
intercontinental
sels
##bei
ingen
utilize
sultanate
certainty
shag
darlington
chieft
##four
##umbles
melodic
##bron
ike
apples
pictured
odyssey
gertrude
vita
##iterated
hiroshima
switches
##rug
plast
commenc
bowman
illegally
ung
amazed
natasha
olimp
##imoto
##98
bela
microp
vuelta
stry
minas
##step
leuk
370
dioceses
wallet
entrusted
disastr
##owicz
squeezing
burgh
imposing
dynast
cinematic
amel
attendant
nests
mortimer
famed
##lit
##edict
como
schon
glaciers
##oglu
hards
mustafa
frantic
##arum
butch
congregations
homicide
neph
##ograf
bahia
aldr
kild
##reys
##bao
anaheim
wehr
mocking
boll
intox
rafe
christoph
apps
yields
##metrical
patton
accordion
spurs
spokane
##ivorous
eury
combustion
##agna
##oty
gabon
fernand
lattice
schn
##opathy
donkey
alfredo
drains
##kir
emperors
cans
capsule
wedge
spartan
bounty
pyrene
immin
propose
subcommittee
evenings
redistr
walters
caravan
otis
stylized
secre
sala
mandal
lull
fey
organizer
bolivian
tonga
psychiatry
1759
explosions
textiles
##ieur
##store
barlow
tuned
salad
joker
##ignant
290
1769
nau
traps
222
cyclones
snapping
##worm
##aten
##emate
spru
reinstated
redund
##cera
accountant
exhaled
cheyenne
warlord
satisfying
hild
porcelain
jurisdictions
jok
stard
favoured
fibers
specializes
anytime
yukon
sabah
##inta
nissan
##mental
adele
parkinson
sieg
antioch
searches
threads
mausoleum
boiling
##ovis
phara
covert
versailles
nie
##owska
prediction
naive
hastily
annexation
emancip
gaunt
monstr
culminating
##4th
1771
flashes
yorker
kahn
insec
battleship
##vier
muir
splash
katrina
alderman
suffers
commencement
montev
ugandan
handles
rothschild
nuremberg
brist
warmer
autobiographical
restructuring
mainz
leb
mira
bethany
verac
spouse
brasileiro
crip
irritated
intermitt
termination
foreman
crusaders
gma
kaf
braced
recognise
sanitation
delph
linden
intercol
indirectly
spectral
##dn
xian
meanings
turnpike
severed
fremantle
dobr
louie
inclusive
railing
sears
novgorod
comparisons
offended
macon
acceleration
##ombe
hussain
pathology
sloan
mei
bayer
gunfire
objections
confederacy
organizers
nomencl
##yah
##ouard
murd
stronghold
cumbria
##mic
ciudad
sniper
##eleine
criticisms
provence
viaduct
##igham
recipe
redesigned
inventions
##exts
verona
reuben
uly
##staff
##athe
landowner
vt
fulfilled
assemblies
complain
supplier
turbines
declan
sherwood
narrated
compressed
presley
buckinghamshire
##itsa
hitter
harmful
schleswig
estuary
espan
goldman
##ovna
##ophones
mecklenburg
vernacular
phylogenetic
headline
ratified
franciscan
##alsa
translate
microw
frau
enclosure
outfielder
groom
mckenzie
barrister
abst
##76
digits
sensual
purchases
##hors
##gp
##opsy
mandated
troph
##pad
meng
dement
alman
hearings
dangers
priesthood
multinational
hemp
biomed
melanch
gabrielle
crimea
haze
rancho
discretion
graffiti
lively
seldom
quer
##utant
moff
mitoch
undertake
##moor
relies
orion
interrogation
taur
disconn
brighter
stadt
titus
manly
malaya
##muller
##uco
outdo
cookies
stricken
sill
zer
cora
440
##obic
katz
hoc
eastward
panicked
practitioner
repos
rufus
##giene
forster
cray
gloom
deposition
saxophonist
houghton
alloy
##burst
discom
sped
mirac
tuition
mccall
conch
northward
##ucer
guilla
stalked
carc
refurb
##erte
##orthy
cheaper
sprang
tango
lexi
kali
1840s
analysts
##yk
couns
jaff
reddy
interconn
##cox
collaborator
suitcase
shov
grapes
##ierz
##alaya
cafeter
##avag
##atted
rearr
routing
donors
jericho
differing
partisans
rhodesia
reminding
arguably
panting
fascinating
##obiles
gugg
##ologia
sorted
trance
yellowish
##essive
exaggerated
furnace
##icin
massacres
kush
1400
phosphate
##unn
inhaled
1765
tbil
recycling
circulated
arrondissement
##otis
##leaf
longitud
narayan
wally
statistic
##liers
friedman
malls
spartans
indec
##asses
prag
##zie
valenc
pb
straits
putin
calculations
enthusiast
masonry
##quisite
reneg
celestial
preface
##etan
vij
woodward
detectives
calculation
macqu
modelling
grayson
yunnan
oro
electors
bernstein
forearm
##vez
certificates
grasped
ning
subl
scrutiny
executions
tehsil
##kyr
goats
rotary
husbands
##hammer
pearce
##rafted
##heus
##ifical
cheating
hara
striped
##ogg
hygiene
recalls
vargas
##boa
cact
ascension
##imps
kernel
hates
omitted
vines
coo
patented
guts
ghaz
sliced
vere
##heres
compilations
contexts
ljubl
mesopotam
reggie
karim
generators
foll
marches
##rift
allie
erica
nub
neolithic
##ishly
##ilon
pines
blacksmith
##ije
##omir
##banks
moderately
##game
python
satire
hooks
redisc
gris
entrances
secondly
archdeacon
madeline
torment
##lein
##ophysics
fru
ferries
xanth
##byn
yves
terre
recollect
colchester
harps
##journ
##arty
commitments
quintet
gutier
booked
derrick
##hua
bem
hapoel
renn
wab
dunes
oasis
##ка
retal
conspic
milano
toad
thro
fumble
carriages
entrepreneurs
archery
bk
liberties
orator
forthcoming
ritch
tbilisi
##enbach
simpsons
ramsay
quota
milestone
pep
inflicted
peab
##rau
consonants
invitational
desirable
addison
ragh
skipped
variously
##ог
##odeon
sej
gupta
monterey
pediatric
madeleine
375
rte
php
disintegr
##chett
pontifical
menn
kik
70s
reprint
ruben
bidding
leroy
bourgeois
##ensburg
austr
pumped
danielle
stevie
hopeful
conceal
pasadena
dino
inad
##text
lego
wrinkled
disguised
dok
prent
bows
federico
joze
deco
phoebe
attackers
480
lh
denomination
woven
microc
smirked
213
219
revolver
collingwood
paige
mcne
damian
besieged
playboy
##alde
modular
gladi
campaigning
pk
khz
viper
##ostr
crimean
rss
guangdong
endured
burrow
##54
handwr
prospective
theorists
masterpiece
##pay
##cd
framing
coincided
anthropologist
ordination
ait
delivers
transporting
retreating
hearted
deception
preferences
thoughtful
mateo
##atius
marius
##jit
revive
nasal
imperson
380
junct
clinics
cougars
walled
mclaren
hides
subun
pistols
goddamn
compose
businessmen
guarding
auguste
bestowed
pierced
marianne
##illac
weary
hinduism
muffled
unemployed
simpler
##hera
labelled
sermon
333
faso
epidem
determines
indict
wheeled
bartholome
guiller
reliance
redemption
mahm
luckily
##vara
##annie
pleading
slack
pint
neatly
##olit
sleepy
shocking
crawling
ecosystems
##iento
yuc
bridget
salvage
##wei
tull
1762
##yx
##screen
##ел
peabody
exasper
lashes
##yam
wiel
abort
cern
jod
unfor
glider
konstantin
requesting
fiercely
flock
undergone
applicants
##sg
##ieces
embarrassing
retaliation
hostilities
knoxville
responds
lure
lugg
301
heavens
tandem
##ograms
plunder
slade
overlooked
disastrous
demos
##iris
storylines
principally
ecoreg
ruthless
voluntarily
exceptionally
dia
insists
buyers
##uno
unbeat
##street
corridors
bianca
aristotle
enn
scattering
matilda
migrant
wooded
lawsuits
hewitt
hovering
tamar
beads
landowners
resil
obsession
arising
##iente
floral
poe
camou
julien
armistice
imminent
##icable
apologized
installment
simultaneous
sput
supplying
hillary
1715
dp
fundament
##assi
##ου
appra
baths
surm
reckless
collin
sapph
terrifying
bakery
avid
shoving
separat
gland
978
##vard
illegitimate
211
continents
brok
sgt
##rill
##58
fatalities
underside
bouncing
vibrant
researched
boarded
whig
embark
carv
caracas
tis
frightening
##lene
seeming
thrilled
handy
gerhard
reintrod
educate
##media
revital
sharif
swap
kazan
##intyre
overlap
mandolin
wp
##atre
exceeding
fiat
archers
axle
##nant
##erun
cylindrical
1300
##adur
seizure
samm
stripe
shouldnt
momentarily
spared
impose
cerebral
yamag
elastic
criterion
univ
tentative
whales
doe
claudio
brib
##iburg
motives
##forward
landlord
potomac
mani
banquet
wikitable
##kick
undrafted
rhythms
jett
##aughty
##96
sewer
unpop
metaphys
216
sherlock
##ouss
##andum
instability
izzy
##eliness
##izo
cooperate
burkina
calv
kabul
cookie
minors
hilar
##bonne
shal
##opal
occult
hesitate
##atia
##henburg
##mined
##zone
whirl
##ilan
interdisciplinary
amtrak
##oughs
##elda
countdown
morrow
wired
sparkling
glover
hazardous
marries
greenville
##guards
yates
assassins
needles
puppy
##ryl
prejudice
rodeo
brant
posture
clover
thessalon
hj
niche
livery
newborn
gutierrez
rugged
sheldon
mcbride
liking
prist
impaired
miracles
protectorate
hb
skim
33rd
genev
boo
ict
yeoman
vida
whore
phyt
collaborators
monit
218
##opod
##planes
polk
quasi
lepidoptera
atroc
wain
transylvania
ljubljana
thankfully
cbn
pilgrims
##otics
penned
slightest
wry
invaders
perfume
##isches
negr
mca
imagining
untr
quartz
jel
yur
envoy
ferre
croy
geologic
sudanese
stefano
haifa
32nd
rupt
rubble
densely
consonant
##inely
##ivities
neh
comforting
hv
geologist
flexibility
##oja
aki
integrate
campo
counselor
freemason
selecting
vase
painfully
terminals
nb
demetri
pomerania
mariana
disciple
1764
camoufl
browning
##breaker
blanco
secession
advisors
coincidence
blinking
35th
abol
vickers
shareholder
penelope
sparta
upgrades
roost
spherical
oven
paragraph
otter
initiation
isis
##atel
reservations
##inidae
##nets
esport
##entes
widening
breakup
flickered
##legiate
romani
staple
burgundy
##houn
rests
instincts
##olm
rhineland
nepalese
dixie
willard
mergers
domenico
haryana
##thalm
comte
confusing
gradient
fishes
langley
clarkson
topology
herbs
linen
admiration
vulnerability
javelin
boiled
1753
cavity
intersects
mabel
##coat
dov
reasonably
tasmanian
bamb
epa
1754
remembrance
intercollegiate
inert
##abria
raided
poisoned
cebu
behave
sahara
scheduling
medicinal
kelley
glaring
canonical
patty
ith
spreads
##aer
bathing
nickelodeon
##angana
lombard
ect
echoes
novak
piston
furrow
##aira
injust
##ogeneous
911
gaius
##nity
forgiveness
1707
empirical
polynomial
42nd
breth
##urable
christi
honesty
helene
rowland
##rr
##iero
snowboard
##atters
disused
garg
breathless
akbar
walnut
##yrus
sinn
wanna
autism
cents
##ivism
costly
##loid
juventus
landslide
prevalence
histori
##lehem
##vale
heap
seminar
slated
tablets
reins
larsen
duffy
guillaume
colby
transforming
spectros
dynasties
204
sama
##arak
notor
##elig
gruff
##abs
stacked
mandy
ante
##adam
confirming
melville
textbooks
disappears
pembroke
skyscraper
1640
warbler
##may
highlighting
bordering
unin
locke
barnett
yielded
mest
qur
##allah
splin
traumatic
taut
tempted
217
cite
disob
counseling
attach
moj
riff
blush
interventions
##occupied
l1
##corn
##odynamics
artworks
jihad
electromagnetic
mercen
isaiah
pleist
##idable
pena
santana
monitored
explanations
dresser
chas
joking
impart
clergyman
peyton
parental
shoreline
##aq
priorities
dice
##nock
##inz
paste
pornography
##ος
akron
##iones
trunc
##riac
commemoration
orphanage
influx
parry
mitsub
goodwin
guggenheim
halft
wholesale
bien
##izzard
##rand
bombed
vaccines
bargain
bethlehem
karab
rosenberg
tsunami
incumbents
##isław
vitamin
##helle
rowe
snooker
wingers
sponge
alliances
srin
##ergic
##dre
##ulet
##fair
intently
##ellschaft
fw
clade
dispers
brandt
##luded
disreg
1740
scotch
protagonists
tarr
temptation
harrington
1830s
##iras
##ptive
fusc
sabine
faculties
##chn
##oros
pba
##ainen
1755
chronological
paramil
abl
conditional
narratives
servic
domination
mythological
celia
valves
conner
cathy
tuning
foyer
unconstit
tyson
disagreement
prologue
successors
##hei
##ustomed
vendors
##oxy
fours
410
taft
trams
darcy
turmo
slash
storytelling
##atical
petra
jesuits
repay
erad
manipulate
##97
violating
lausanne
buyer
bubbles
roaring
aesthetics
deficiency
##yas
contention
##dem
contamination
shaman
inquir
jumper
glor
##eanor
##bid
coil
radioactive
automation
outdoors
booklet
cuck
rendez
##ionage
negatively
adaptive
gangster
telecom
jaguars
sloane
thumbs
rana
pounder
##buck
bernhard
envisioned
antiquities
shaken
##graded
quiz
nairobi
##leader
deserves
lucian
mentioning
truce
invites
ubi
##ellidae
respects
fulham
wakes
deposed
fad
participates
1745
cafeteria
aes
convened
slay
ecuadorian
##dl
unbeliev
injuring
belts
##assium
##52
##stor
##irth
##orrh
undoub
spanned
stationary
mitsubishi
smug
processors
creepy
kneeling
swirling
rv
landes
purported
214
sandw
acetyl
##uble
##lasses
prok
declares
mids
ptole
vaudeville
plunged
towed
intro
carpath
bolivar
shrubs
brest
34th
initiate
softened
filters
proton
baked
stealth
maris
dracula
timet
freddy
eer
##zb
viva
carving
dung
##velle
canoeists
byzant
diversion
cim
equatorial
djs
bernardino
fec
grains
gazing
defects
m3
exercised
##cards
bernardo
baylor
padma
##bridg
pieter
##orc
chag
lai
##orting
cil
##writer
brethren
stump
modernization
spire
disagreed
vaughn
undoubted
aman
treats
##holding
cautious
##hous
treacher
grady
##acious
revolves
scho
expectation
proceeding
fs
yusuf
##coni
palaces
succumb
admissions
rosh
shepp
biał
archival
aspen
bengals
favourable
battling
oyster
fitt
dehydr
attendees
##ochemical
##endicular
kite
montp
countered
##azzi
efl
evid
##arsely
advocating
tatar
dolly
tastes
soothing
##arde
abram
mystical
sacrifices
##emma
1650
bridg
aggrav
transverse
fueled
grub
spontaneous
mutiny
##hwa
overhaul
waver
montevideo
##kt
kyrgyzstan
effic
221
khar
costello
hodges
##ieux
correction
##igon
icons
frantically
##uper
##arming
adhes
##alone
##stedt
hangar
stephenson
hypot
gamble
hitchcock
terribly
##ecost
pyrenees
esqu
##izia
lour
depended
vaccination
aggregator
foothills
extrac
deprived
hn
convergence
galile
diffusion
heroine
wasp
orchestras
##eyes
swell
##cephalus
##orte
admitting
##ibor
£3
fx
encoding
bartlett
attacker
imagin
shortlisted
perpendicular
invading
reim
adobe
galloway
sall
##bottom
electrified
bounce
470
ocl
biennial
1756
##fork
boise
cpu
doses
scenery
lipp
madden
concentrating
amounted
energetic
immaculate
##rates
introductions
##matic
bankers
anonym
curiously
ett
chub
drying
cambridg
dary
archaic
constitutes
caul
##annis
325
hoo
##akin
fae
##geons
armenians
trait
conjug
undead
memorandum
pw
fredrik
guido
careless
##hner
competent
boroughs
pharaoh
boca
##erved
marjor
intricate
##rc
##pill
grill
cambridgeshire
remarried
dmitry
discomfort
lori
emphasize
turmoil
greyhound
tapest
diverted
guillermo
olympiad
tacoma
bikes
loyola
##omics
303
##ocytes
reclaim
salute
pokemon
lillian
pleistocene
occupants
backl
paddle
nect
pathetic
##iculture
potassium
ons
negotiating
trophies
##itates
tents
lama
analyze
transports
saus
##evo
nouve
assumptions
crot
undertaking
##bies
musica
eyelids
##uen
##ichael
iaaf
##jans
meek
espionage
##enco
professorship
bandits
marketplace
fra
defer
levin
sver
bartholomew
hl
##ocław
unlaw
##lifters
colliery
cyst
##hui
sails
peninsular
buster
##atown
agg
mith
clemson
predictions
anthologies
shil
recipes
wentworth
usb
mounts
##afar
zum
barked
grims
glowed
silas
rejects
courtr
elton
authorised
remembers
clit
##obo
benedictine
ritchie
persisted
casp
chloride
##ocarp
hormone
hellenic
monty
improper
cruelty
susceptible
##weeney
eber
bryce
##pis
gok
beautifully
cabaret
darm
haem
ornate
1757
agust
garfield
mercenaries
patel
aperture
##vous
betting
blazing
gdansk
cai
m1
paperwork
##uvan
takah
sellers
remixed
##coal
lobbying
freiburg
anchorage
cradle
paraguayan
torpedoes
poppy
parallels
##ет
##idos
deepest
overseeing
mueller
guthrie
protects
insights
##lau
jamal
alchem
industrialist
suprem
fuzzy
flare
balkans
oricon
tect
shutting
##asmus
##ophobic
##eering
ventilation
##izan
zal
fridge
hamid
notch
bratislava
##rol
watford
##ovascular
224
nomenclature
##63
rees
nij
preaching
tread
##iard
dais
welt
##inee
luce
bethel
impending
prakash
shifter
weakly
severity
qaeda
##inged
churchyard
honeymoon
fij
instinctively
fores
##iating
joints
pentecost
contender
licking
lukas
piled
warns
##chev
##anao
alloc
thessaloniki
haupt
webber
crass
##iyama
journeys
##alls
endowed
corpses
accountability
symphonic
featherweight
##cup
jou
notified
manic
tetra
misconduct
lending
relying
haar
ensign
ih
##ramatta
##cephal
sow
grumbled
goin
vineyard
hostages
intercity
##uchs
welcoming
dalmat
liturgical
wolff
transcend
facilitated
marlins
kham
tigr
barge
bonif
philanthropy
koll
detector
eclect
sardinia
osp
##hent
ballistic
iro
##rase
superliga
caric
bison
bids
##orsky
adjunct
svet
tiber
agar
avalon
tere
currie
##cell
genealogy
jeop
adolph
protestants
baff
keynes
murdoch
fuku
##uche
intervene
medicines
cavan
trac
problematic
ceded
camar
biomedical
jad
conducts
fortunes
presentations
foam
generalized
animator
coop
luggage
theirs
##viation
juno
alzheimer
##amation
rehearsal
vans
curly
superstar
algiers
##gham
sylvester
wł
downhill
##oplane
panchayat
##owice
inflammatory
##hift
suspicions
resett
harald
header
pensions
sine
##chu
parrot
echoing
cephal
hillside
fenn
torr
automobiles
simplicity
brody
brightness
eileen
malaria
nant
whitish
##udo
##hik
peering
poked
gardiner
dusk
hubner
kany
##igraphy
volkswagen
monoc
noc
ripping
##uaries
andor
humidity
dammit
cabr
sunglasses
perch
twitched
jaen
sharpe
laced
grouping
geschichte
mina
richter
##kaya
brackets
##igate
refurbished
possessing
gatherings
deng
feminists
cleans
byu
spiel
decreases
seminars
memo
novella
bonap
##olate
##obas
dynamite
eras
urine
halftime
convictions
invade
conversely
khalid
hostility
guessing
cheryl
boon
chrome
shrines
khmer
##entiary
biotechnology
captures
mccull
gee
registers
arturo
eck
cullen
rework
tanker
jozef
jimenez
1689
frontal
temperance
##ilateral
232
mapped
remarkably
##amble
congen
slips
garment
nanjing
unpopular
inspiring
graphs
##ophobia
##reich
##broken
woj
mounds
liberated
criticizing
guern
sediments
dickens
exploit
defenc
##ovy
suarez
clasped
##gesch
musa
vanity
##throp
faa
dessert
mute
dhabi
emigration
valign
jy
traject
hiss
barrage
gracie
inaccur
##gis
doctr
##olese
banning
unconstitutional
exert
cartel
commemorated
##kre
uninh
curran
curv
228
semiconductor
##zia
##oxide
prescott
ignition
sniffed
kurdistan
proclaim
##horses
wanda
propped
plagued
barnard
prosperous
##rows
reputed
##woods
spawned
bogota
##wife
disagree
idle
##uw
lookout
improvised
barony
inspire
sheltered
##ovol
fabian
tint
chords
##letes
moe
tyre
holloway
ork
implicit
throbbing
pans
tog
orchids
##acements
foundry
tweed
disclosure
advise
rushes
##estra
micah
kinda
quarantine
ska
##apple
##akrish
##balls
bei
##otox
##hny
ghar
sociologist
##icki
monsoon
eel
##itives
##cars
##62
texans
musket
ui
maureen
barric
acquaintance
richest
smuggling
##schule
eucalypt
kiy
##rals
coordinating
##onite
comrades
227
airbus
situ
literal
gemma
##good
##apeake
muzzle
##atos
isid
edouard
montr
fools
hartley
unavail
arson
schre
rooft
convinces
siberian
lazar
psalm
blanch
faults
huskies
##orical
moines
mora
elmer
36th
##heet
quo
inspir
trud
hapl
witchcraft
##amesh
elevators
unbeaten
##ffe
purity
maccabi
abuses
sumo
cambodian
recons
##sville
politely
jig
hari
##anooga
yere
estadio
maddie
fracture
obstacle
xuan
atkins
referees
heron
undoubtedly
##ingale
##ovski
syntax
hereford
hayward
##tas
hutton
wardrobe
##irchen
##copes
scalp
cottages
##acus
1710
kathryn
rye
luzon
keyboardist
isk
ursula
iec
##82
ventura
entertainer
yahoo
strains
judd
baird
fath
helens
fuss
rendition
remastered
leaped
repuls
unwanted
mysore
##weig
##erta
middlesbrough
edible
periodically
connectivity
masonic
attribute
##aceans
siam
ht
fum
lynx
##reet
landl
bangor
policing
reelected
zionist
irritation
klu
gardener
stallion
chesapeake
##esthes
##anko
60th
slang
uj
dian
kro
fills
nautical
dependence
relocate
complaining
noticeable
preserves
ln
nouns
extermin
schuster
indicators
chattanooga
zhen
armand
aubrey
cip
ather
##ridges
unac
cocktail
gue
physiological
chewing
##hene
slipper
perpetual
460
unreal
disgusted
hush
##aray
exploited
##useum
thuring
##lid
gasping
sundance
hume
squinted
cerro
positioning
giggle
stacy
sato
iphone
semb
hov
##meister
sheath
##eworthy
anastasia
qian
magnum
apprehens
reinforce
brigham
polyg
##84
lenny
interpreter
commissioning
piles
selsov
decca
##shield
pussy
##9th
shogun
offenders
hangs
magna
entrepreneurship
kobe
##iaceae
microwave
gec
wrought
garry
eyew
calf
trusts
sabre
##amu
whirled
stacey
acknowledg
linger
procurement
augmented
napier
flourished
kott
##joy
ghe
telangana
barangay
backdrop
moldovan
cummings
ndp
babyl
##1st
mineswe
##igal
sufi
zoology
##ær
parramatta
slit
fatty
croft
alta
collaborating
examiner
##osch
affirmed
hana
streetcar
derive
connector
authorization
spartak
carcin
miocene
battered
tugging
erg
impressions
francais
1a
##hari
symbolism
tajikistan
tito
arenas
perched
sinai
##anagan
remnant
##zyk
bafta
##ennis
bled
projecting
munro
thistle
breeders
##0e0e
##chat
elites
optimization
guadala
prototypes
drummers
fontaine
nicky
refuel
phyllis
chrysler
boilers
##fors
osman
kew
bla
siren
ronan
bothering
centimeters
runaway
massey
##hab
franks
longitude
announcers
mythical
annoyance
nino
schoolte
legislator
kard
##olor
lennox
preschool
penang
contaminated
cortes
disrupted
##oland
morp
reeve
owning
incidence
impatient
gustaf
##usha
snatch
fabulous
raging
ske
refinery
scaled
citrus
plumb
revolutionaries
guadalajara
##ifix
##marine
##bbing
vertebra
vowed
creole
lgbtq
sincere
##hester
disruption
##build
funer
frigates
balt
wwii
regeneration
##olyt
##anoi
norma
charcoal
nood
olds
separates
scarce
dard
##otiation
disliked
##illus
marjorie
dyer
warmed
webpage
rez
baum
frederik
feroc
biennale
evenly
maroon
insurgents
vascular
##ilah
realms
buoy
taf
culinary
raoul
quan
discern
gestures
embank
yev
##etha
lute
ama
correctional
cheerful
bari
uploaded
thorpe
##weg
clums
topography
##sche
##mis
pentagon
offseason
infirm
salesman
vertices
##ouin
blad
shrimp
737
chemists
linguists
seaside
postmaster
impuls
economies
bie
##aila
vegetarian
223
nakh
##jid
##champ
1727
whereabouts
noteworthy
##atoire
admirals
stut
encompassing
natalia
travellers
commemorating
creep
phelps
schiffer
investing
720
formidable
intends
suriname
adulthood
carleton
classmates
vitor
gentry
mimic
##itia
andrey
watercol
bharatiya
hove
fibr
repression
krie
splits
##ugawa
marne
recession
mediated
galaxies
sewage
##odina
regress
unsett
gj
forgetting
junta
vibration
beckett
robber
hopped
vard
roadway
gothenburg
adjutant
nonf
schizoph
optics
youths
##hav
##sohn
consistency
##ев
pamphlet
grassland
##ignment
kof
angered
selena
catering
robotic
hepat
baronets
sprinters
archbishops
kidnap
fullback
lame
interpol
sicilian
rewards
stomp
regis
##asher
starving
larson
navarre
alek
diptera
playful
##quito
greed
magu
pursu
disemb
minimize
waits
520
tattoos
enraged
ophthalm
salford
heiress
fitzroy
restrain
##bey
chesterfield
isil
aram
##izi
morley
ecumen
indent
bif
surfing
hock
token
aleppo
##akt
surveying
instituto
##6th
##ags
snowy
1648
olson
fingern
pitches
crafted
reefs
montane
##ulg
distributions
##angelo
myri
randomly
pereira
b0e0e
kaj
b0e0e6
ops
differentiation
longitudinal
dazz
tg
##masters
accusation
lech
flicker
scam
##trans
##icos
zachary
coefficient
nug
sash
##eles
##ablanca
gritted
skirts
skeptical
goalscorers
roommate
dewey
burgl
spruce
talmud
schum
detach
dickson
taxonomic
waik
ragn
##rim
navajo
305
##chwitz
hardest
robotics
scoff
directional
fluent
perme
238
##lest
faye
cleop
anom
##etric
thwart
nero
genevieve
zeller
quantitative
swindon
ansel
inelig
baroness
gareth
##ал
38th
clarified
##opic
kirch
1747
##hov
graphical
##otsky
rhone
sukh
goodwill
crucifix
annih
gry
selsoviet
outcr
trivial
antrim
cosmos
foliage
haunting
245
1730
endure
talon
##igy
255
bertrand
pivotal
jens
remotely
##ushan
jn
griffiths
sabotage
subter
##ruff
bahadur
apostles
efficiently
acanth
spectr
capitalist
prostitute
biochemistry
retention
bedrooms
baloch
coating
europ
##kova
accustomed
halves
prima
hamas
efficacy
##tu
kitten
##74
inadvert
umpire
##ichy
1720
lectured
##icio
##upo
bournemouth
rih
forks
connolly
jiu
sog
therapist
stride
cbe
researching
luxur
ains
puzzles
abusive
lm
##aban
internationale
swelling
##agements
390
aint
##bly
populous
##yuan
prefers
melvin
eclips
conglomerate
wonderland
##fighter
adjustment
orte
vertex
##gado
##idered
whitman
extrad
comfortably
adorned
rendezvous
##fill
##oden
##ilio
ambitions
flirt
##lea
ccc
diagonal
firefighters
honoring
fused
##macht
listener
zepp
pancre
tuscany
angelica
##ogh
karel
##itra
shaping
##chia
penit
roach
genetically
baza
aps
##eny
attracts
stainless
goaltender
amiga
neuroscience
nast
transn
feral
##isma
##shirt
elves
furnish
unhe
bibliothe
morale
##cad
silky
cairns
yerevan
bipl
fute
wrig
invarian
lingered
fon
##fal
manned
astronomers
carver
burnley
calais
catchment
souven
hugging
quarterfinal
##mount
##92
gillespie
mj
ee
xiang
guzman
nominate
##avid
##mentation
redd
silesia
##pop
scarf
wetland
fetch
cylinders
##ин
horsesh
##burne
lehigh
trenches
##etted
defiance
bullying
polygon
bux
hopper
coherent
kickoff
bathurst
harmonic
steiner
jarvis
smackdown
##cheon
##tus
billings
staffed
lyc
rolf
##otine
arranging
slowing
##oplasm
mellon
snoop
fanc
##zai
shipwrecks
compensate
denote
emerges
downing
casualty
creeping
meiji
##grown
indefinitely
xer
zub
##lat
##esset
sint
laval
climbs
ensued
abducted
illum
berber
fuels
axi
tripoli
##bj
fukuoka
##astically
##rail
##inar
roan
yoon
zed
occupations
refrigerator
fai
kinc
naga
hec
pandora
snack
640
##ionale
precedent
##gre
##eval
247
dionys
reassuring
herod
##brush
royalist
trot
conflicting
##aughlin
##ateurs
##iflora
anecd
imdb
acquainted
messy
e3
policemen
angled
fla
lizards
##ecki
edna
willingly
uri
basins
##oris
testify
prog
wj
neder
protesting
dit
##illand
##tres
psal
doubling
##azaki
spind
##obs
vign
yao
lacy
sanford
earls
bounds
oe
slug
ignorance
resched
dungeons
qui
##aky
##ricks
straightforward
zeke
ridley
mecca
astur
triest
##ropoda
commodity
bakers
parcel
gottingen
koc
##lang
norwood
subr
intentional
janice
jagged
primaries
homec
deteriorated
##rically
sven
2a
##oscope
##naire
##cote
##ophagus
oliveira
pixel
saharan
blizzard
sif
handc
265
differed
prevailing
assessing
##71
lark
tanya
allegheny
hua
conor
parlor
ledge
traverse
reigns
penis
##kus
sentencing
prelate
shudder
##ariidae
##dad
rosal
##од
fisherman
harcourt
discus
fender
##film
stalled
incorrectly
sait
##alski
1741
##urp
##etum
toh
radcliffe
fugitive
tease
barbar
apprenticeship
##odar
##ovka
muay
totals
coasts
u23
siena
264
westwood
voyages
##lingen
crowley
retailer
independents
proliferation
crows
flinched
##gaon
verified
haynes
lunged
carmine
futebol
##yad
oxidation
alumnus
shortest
glamorgan
aristocratic
spirituality
lw
inverse
uw
evapor
goethe
woodstock
hourly
johanna
231
nuevo
rumours
##fel
malmo
acronym
staten
430
##belt
inductees
unix
allevi
babu
680
##rella
adriatic
glucose
##tel
wiss
millionaire
skateboard
##arist
objection
##61
shek
busiest
tolkien
##opolitan
gems
nid
breuning
negotiation
narration
chao
filthy
bsc
persecut
headlights
##83
chili
distorted
ym
brothel
clinging
condens
chik
liech
cohes
perseus
schooner
##ittle
corona
cog
kharkiv
##avo
instructors
vectors
haas
calculate
sadie
pew
induce
abdomin
oils
divis
##him
leib
strad
serra
analyzing
hawthorn
##arab
sampson
##olid
spilling
craven
##adr
sighs
1661
mathias
catt
##brate
sighted
balth
##ivka
mahmud
##arek
sabbath
saturdays
henrietta
corrections
novo
##sef
florent
spikes
bittern
newtown
afrika
##hana
lila
adolescent
organising
garth
dodd
distributing
blossom
schedules
kd
repeats
dietrich
iberian
handel
frei
pillows
950
hagen
jock
engagements
sculpted
##zej
bumps
##imated
denoted
waff
##zano
##eki
hahn
##ondition
kidd
swings
weddings
sipped
##ophile
turkmenistan
tipp
milo
proportions
carlson
skeletal
thatcher
coupling
marshes
stereotypes
##uates
wasting
##iale
##ondheim
headlines
castel
expenditure
##oue
##cala
filipp
yarm
baptized
symmetric
pacif
hardcover
##crow
tumors
refur
racehorses
propagation
eagerly
fairs
##73
##vern
enrich
fronts
readiness
nagoya
bony
submissions
johor
regal
provoked
fascination
heroin
bose
sparse
arroy
polyp
balm
vasily
gersh
##ayne
interiors
authent
soto
stirring
##opt
accumulation
refurbish
hound
petersen
delle
petite
strapped
glist
charley
beyonce
##million
murdering
marlborough
cramb
eureka
##wah
southbound
huron
##vig
##anos
pertaining
##sman
cristina
bakh
##enschaft
oblivious
characterization
sourced
shandong
##sw
illustrate
blushed
sø
##endish
bearer
racers
brisk
##iotr
henley
abandoning
fusil
isf
turnover
alton
tammy
##omba
easton
mallory
aroused
jewellery
##iole
juli
1690
bonaparte
query
bluegrass
coax
hornets
inclin
romano
chinatown
##94
griev
pasture
##litz
jase
counters
neutrality
ingrid
ats
aviators
lighthouses
veracruz
safeguard
glossy
##avel
##zas
eaves
fielded
benefited
cinderella
barking
##ulously
guise
yvonne
hilda
proudly
togo
twenties
sury
zhejiang
smoothed
gemini
lair
erwin
weightlifters
repert
accessibility
rabbits
aviator
sampled
grasses
alleging
fargo
tumbled
broch
brownish
ensembles
rour
nus
##arten
regents
sequels
puls
werewolves
clinched
##obl
dislike
highlanders
blaine
nanny
unison
pog
vila
ascend
hoffmann
libby
seneca
loneliness
##ounce
veer
spectator
arithm
plato
pulmonary
eigen
rr
##ayi
mata
bleak
cdc
enhancing
tentatively
##ontinent
outn
mccormick
##educt
collaborate
steamship
systemic
bolted
argonaut
armagh
##iegel
stamford
flipping
conserved
sync
60s
itt
##akon
cland
justification
##angor
39th
beverage
4000
##otion
miniat
monde
rbis
pitchfork
splendid
lansing
rani
flap
1100
verdi
risky
omin
coloss
mainline
taluk
textual
mariano
indicted
##ivas
famously
routed
guerre
compiling
insanity
302
giacomo
marley
vertically
jugg
liechtenstein
knighted
undes
makeshift
terminate
traveler
forcibly
palestinians
##ucco
dolores
blurred
khorasan
##tech
choking
inconsistent
ineligible
abrams
euch
underwood
nfc
sweeney
##ellum
herring
unavailable
lengt
##93
panorama
##7th
##anco
steer
##ukan
coincide
##tro
oppression
nix
rov
copp
dashed
gork
kuch
arct
gravitational
endorsement
romney
culturally
husky
baronetage
parch
flyweight
##uya
neurological
spaced
##dain
##oble
lokomot
barnsley
demol
cypress
##ifi
cdu
livelihood
woodp
sums
##iek
szcz
disor
scripture
supervisors
##ık
##enta
discount
davey
chaotic
nouveau
yol
##oleague
kinn
munitions
jordanian
##ibur
blouse
robbed
commentaries
540
paramilitary
##azu
lakshmi
ignacio
guiana
bonding
aeros
implicated
croydon
canons
orphans
niet
inverness
decker
suppliers
bruises
unpl
captives
pricing
paradigm
##ffen
herrera
fos
dept
indigo
theorist
raman
##algo
karma
arises
replaces
winkler
[...]
